{
  "version": "1.0",
  "truncation": {
    "direction": "Right",
    "max_length": 512,
    "strategy": "LongestFirst",
    "stride": 0
  },
  "padding": {
    "strategy": {
      "Fixed": 512
    },
    "direction": "Right",
    "pad_to_multiple_of": null,
    "pad_id": 1,
    "pad_type_id": 0,
    "pad_token": "<pad>"
  },
  "added_tokens": [
    {
      "id": 0,
      "content": "<s>",
      "single_word": false,
      "lstrip": false,
      "rstrip": false,
      "normalized": true,
      "special": true
    },
    {
      "id": 1,
      "content": "<pad>",
      "single_word": false,
      "lstrip": false,
      "rstrip": false,
      "normalized": true,
      "special": true
    },
    {
      "id": 2,
      "content": "</s>",
      "single_word": false,
      "lstrip": false,
      "rstrip": false,
      "normalized": true,
      "special": true
    },
    {
      "id": 3,
      "content": "<unk>",
      "single_word": false,
      "lstrip": false,
      "rstrip": false,
      "normalized": true,
      "special": true
    },
    {
      "id": 51999,
      "content": "<mask>",
      "single_word": false,
      "lstrip": true,
      "rstrip": false,
      "normalized": true,
      "special": true
    }
  ],
  "normalizer": null,
  "pre_tokenizer": {
    "type": "ByteLevel",
    "add_prefix_space": true,
    "trim_offsets": true,
    "use_regex": true
  },
  "post_processor": {
    "type": "RobertaProcessing",
    "sep": [
      "</s>",
      2
    ],
    "cls": [
      "<s>",
      0
    ],
    "trim_offsets": true,
    "add_prefix_space": true
  },
  "decoder": {
    "type": "ByteLevel",
    "add_prefix_space": true,
    "trim_offsets": true,
    "use_regex": true
  },
  "model": {
    "type": "BPE",
    "dropout": null,
    "unk_token": null,
    "continuing_subword_prefix": "",
    "end_of_word_suffix": "",
    "fuse_unk": false,
    "byte_fallback": false,
    "ignore_merges": false,
    "vocab": {
      "<s>": 0,
      "<pad>": 1,
      "</s>": 2,
      "<unk>": 3,
      "!": 4,
      "\"": 5,
      "#": 6,
      "$": 7,
      "%": 8,
      "&": 9,
      "'": 10,
      "(": 11,
      ")": 12,
      "*": 13,
      "+": 14,
      ",": 15,
      "-": 16,
      ".": 17,
      "/": 18,
      "0": 19,
      "1": 20,
      "2": 21,
      "3": 22,
      "4": 23,
      "5": 24,
      "6": 25,
      "7": 26,
      "8": 27,
      "9": 28,
      ":": 29,
      ";": 30,
      "<": 31,
      "=": 32,
      ">": 33,
      "?": 34,
      "@": 35,
      "A": 36,
      "B": 37,
      "C": 38,
      "D": 39,
      "E": 40,
      "F": 41,
      "G": 42,
      "H": 43,
      "I": 44,
      "J": 45,
      "K": 46,
      "L": 47,
      "M": 48,
      "N": 49,
      "O": 50,
      "P": 51,
      "Q": 52,
      "R": 53,
      "S": 54,
      "T": 55,
      "U": 56,
      "V": 57,
      "W": 58,
      "X": 59,
      "Y": 60,
      "Z": 61,
      "[": 62,
      "\\": 63,
      "]": 64,
      "^": 65,
      "_": 66,
      "`": 67,
      "a": 68,
      "b": 69,
      "c": 70,
      "d": 71,
      "e": 72,
      "f": 73,
      "g": 74,
      "h": 75,
      "i": 76,
      "j": 77,
      "k": 78,
      "l": 79,
      "m": 80,
      "n": 81,
      "o": 82,
      "p": 83,
      "q": 84,
      "r": 85,
      "s": 86,
      "t": 87,
      "u": 88,
      "v": 89,
      "w": 90,
      "x": 91,
      "y": 92,
      "z": 93,
      "{": 94,
      "|": 95,
      "}": 96,
      "~": 97,
      "¡": 98,
      "¢": 99,
      "£": 100,
      "¤": 101,
      "¥": 102,
      "¦": 103,
      "§": 104,
      "¨": 105,
      "©": 106,
      "ª": 107,
      "«": 108,
      "¬": 109,
      "®": 110,
      "¯": 111,
      "°": 112,
      "±": 113,
      "²": 114,
      "³": 115,
      "´": 116,
      "µ": 117,
      "¶": 118,
      "·": 119,
      "¸": 120,
      "¹": 121,
      "º": 122,
      "»": 123,
      "¼": 124,
      "½": 125,
      "¾": 126,
      "¿": 127,
      "À": 128,
      "Á": 129,
      "Â": 130,
      "Ã": 131,
      "Ä": 132,
      "Å": 133,
      "Æ": 134,
      "Ç": 135,
      "È": 136,
      "É": 137,
      "Ê": 138,
      "Ë": 139,
      "Ì": 140,
      "Í": 141,
      "Î": 142,
      "Ï": 143,
      "Ð": 144,
      "Ñ": 145,
      "Ò": 146,
      "Ó": 147,
      "Ô": 148,
      "Õ": 149,
      "Ö": 150,
      "×": 151,
      "Ø": 152,
      "Ù": 153,
      "Ú": 154,
      "Û": 155,
      "Ü": 156,
      "Ý": 157,
      "Þ": 158,
      "ß": 159,
      "à": 160,
      "á": 161,
      "â": 162,
      "ã": 163,
      "ä": 164,
      "å": 165,
      "æ": 166,
      "ç": 167,
      "è": 168,
      "é": 169,
      "ê": 170,
      "ë": 171,
      "ì": 172,
      "í": 173,
      "î": 174,
      "ï": 175,
      "ð": 176,
      "ñ": 177,
      "ò": 178,
      "ó": 179,
      "ô": 180,
      "õ": 181,
      "ö": 182,
      "÷": 183,
      "ø": 184,
      "ù": 185,
      "ú": 186,
      "û": 187,
      "ü": 188,
      "ý": 189,
      "þ": 190,
      "ÿ": 191,
      "Ā": 192,
      "ā": 193,
      "Ă": 194,
      "ă": 195,
      "Ą": 196,
      "ą": 197,
      "Ć": 198,
      "ć": 199,
      "Ĉ": 200,
      "ĉ": 201,
      "Ċ": 202,
      "ċ": 203,
      "Č": 204,
      "č": 205,
      "Ď": 206,
      "ď": 207,
      "Đ": 208,
      "đ": 209,
      "Ē": 210,
      "ē": 211,
      "Ĕ": 212,
      "ĕ": 213,
      "Ė": 214,
      "ė": 215,
      "Ę": 216,
      "ę": 217,
      "Ě": 218,
      "ě": 219,
      "Ĝ": 220,
      "ĝ": 221,
      "Ğ": 222,
      "ğ": 223,
      "Ġ": 224,
      "ġ": 225,
      "Ģ": 226,
      "ģ": 227,
      "Ĥ": 228,
      "ĥ": 229,
      "Ħ": 230,
      "ħ": 231,
      "Ĩ": 232,
      "ĩ": 233,
      "Ī": 234,
      "ī": 235,
      "Ĭ": 236,
      "ĭ": 237,
      "Į": 238,
      "į": 239,
      "İ": 240,
      "ı": 241,
      "Ĳ": 242,
      "ĳ": 243,
      "Ĵ": 244,
      "ĵ": 245,
      "Ķ": 246,
      "ķ": 247,
      "ĸ": 248,
      "Ĺ": 249,
      "ĺ": 250,
      "Ļ": 251,
      "ļ": 252,
      "Ľ": 253,
      "ľ": 254,
      "Ŀ": 255,
      "ŀ": 256,
      "Ł": 257,
      "ł": 258,
      "Ń": 259,
      "de": 260,
      "Ġde": 261,
      "en": 262,
      "čĊ": 263,
      "Ġl": 264,
      "es": 265,
      "ci": 266,
      "os": 267,
      "Ġp": 268,
      "Ġa": 269,
      "on": 270,
      "Ġla": 271,
      "Ġc": 272,
      "er": 273,
      "ar": 274,
      "Ġs": 275,
      "Ã³": 276,
      "or": 277,
      "Ġe": 278,
      "Ã³n": 279,
      "ad": 280,
      "ĠčĊ": 281,
      "as": 282,
      "al": 283,
      "re": 284,
      "ent": 285,
      "in": 286,
      "an": 287,
      "ciÃ³n": 288,
      "ti": 289,
      "Ġen": 290,
      "Ġel": 291,
      "ue": 292,
      "di": 293,
      "Ġy": 294,
      "Ġm": 295,
      "un": 296,
      "aciÃ³n": 297,
      "Ġcon": 298,
      "que": 299,
      "tr": 300,
      "ÃŃ": 301,
      "Ġque": 302,
      "ro": 303,
      "id": 304,
      "Ã¡": 305,
      "ic": 306,
      "is": 307,
      "Ġdel": 308,
      "Ġlos": 309,
      "to": 310,
      "ĠE": 311,
      "om": 312,
      "ec": 313,
      "ĠC": 314,
      "ta": 315,
      "Ġre": 316,
      "Ġse": 317,
      "Ġes": 318,
      "Ġin": 319,
      "te": 320,
      "Ġo": 321,
      "Ġn": 322,
      "Ġlas": 323,
      "res": 324,
      "cion": 325,
      "Ġf": 326,
      "ul": 327,
      "ĠD": 328,
      "ĠA": 329,
      "do": 330,
      "ado": 331,
      "ter": 332,
      "Ġpar": 333,
      "Ġun": 334,
      "am": 335,
      "Ġsu": 336,
      "ĠL": 337,
      "ĠP": 338,
      "Ġpro": 339,
      "Ġ1": 340,
      "--": 341,
      "ente": 342,
      "bl": 343,
      "im": 344,
      "Ġh": 345,
      "ciones": 346,
      "ur": 347,
      "ĠS": 348,
      "Ġpor": 349,
      "Ã©": 350,
      "ol": 351,
      "Ġdi": 352,
      "tiv": 353,
      "Ġcom": 354,
      "Ġ2": 355,
      "Ġal": 356,
      "Ġv": 357,
      "ari": 358,
      "00": 359,
      "idad": 360,
      "ento": 361,
      "tos": 362,
      "tra": 363,
      "bi": 364,
      "orm": 365,
      "Ġpara": 366,
      "ig": 367,
      "tu": 368,
      "ici": 369,
      "ales": 370,
      "Ġac": 371,
      "pl": 372,
      "cul": 373,
      "ten": 374,
      "Ġ(": 375,
      "ados": 376,
      "em": 377,
      "cia": 378,
      "Ġcu": 379,
      "da": 380,
      "Ġex": 381,
      "iÃ³n": 382,
      "iz": 383,
      "Ġg": 384,
      "Ġno": 385,
      "ĠR": 386,
      "st": 387,
      "bre": 388,
      "tÃŃ": 389,
      "Ġper": 390,
      "ada": 391,
      "Ġ|": 392,
      "eg": 393,
      "ĠI": 394,
      "tor": 395,
      "edi": 396,
      "ri": 397,
      "ra": 398,
      "Ãº": 399,
      "ĠM": 400,
      "----": 401,
      "Ã±": 402,
      "Ġres": 403,
      "ĠT": 404,
      "fic": 405,
      "qu": 406,
      "se": 407,
      "aciones": 408,
      "Ġd": 409,
      "ÃŃa": 410,
      "Ġuna": 411,
      "tÃŃcul": 412,
      "Ġar": 413,
      "uc": 414,
      "mi": 415,
      "ues": 416,
      "Ġha": 417,
      "us": 418,
      "Ã¡n": 419,
      "sp": 420,
      "Ġso": 421,
      "ĠCon": 422,
      "rec": 423,
      "den": 424,
      "io": 425,
      "tÃŃculo": 426,
      "Ġcons": 427,
      "ba": 428,
      "ĠG": 429,
      "la": 430,
      "pe": 431,
      "des": 432,
      "ida": 433,
      "Ġpres": 434,
      "um": 435,
      "Ġan": 436,
      "form": 437,
      "it": 438,
      "ON": 439,
      "min": 440,
      "ble": 441,
      "Ġt": 442,
      "lo": 443,
      "Ġdes": 444,
      "ĠDE": 445,
      "Ġesta": 446,
      "ĠCom": 447,
      "Ġb": 448,
      "Ġap": 449,
      "ĠN": 450,
      "Ġser": 451,
      "ce": 452,
      "tes": 453,
      "Ġ3": 454,
      "Ġlo": 455,
      "ante": 456,
      "Ġent": 457,
      "ir": 458,
      "Ġpre": 459,
      "ica": 460,
      "jo": 461,
      "tic": 462,
      "per": 463,
      "ia": 464,
      "ĠO": 465,
      "por": 466,
      "ĠU": 467,
      "ĠEl": 468,
      "ion": 469,
      "adas": 470,
      "cl": 471,
      "Ġtra": 472,
      "il": 473,
      "TO": 474,
      "Ġtr": 475,
      "entes": 476,
      "Ġj": 477,
      "ĠEn": 478,
      "Ġsobre": 479,
      "Ġto": 480,
      "encia": 481,
      "pres": 482,
      "Ġ.": 483,
      "ĠF": 484,
      "Ġcomo": 485,
      "ĠLa": 486,
      "Ġinter": 487,
      "ando": 488,
      "br": 489,
      "mo": 490,
      "Ġpr": 491,
      "el": 492,
      "Ġas": 493,
      "pon": 494,
      "âĢ": 495,
      "arÃ¡": 496,
      "Ġim": 497,
      "uer": 498,
      "ido": 499,
      "iv": 500,
      "Ġmedi": 501,
      "duc": 502,
      "ĠartÃŃculo": 503,
      "ĠEst": 504,
      "dos": 505,
      "idades": 506,
      "tado": 507,
      "tas": 508,
      "cial": 509,
      "isiÃ³n": 510,
      "gr": 511,
      "pues": 512,
      "osi": 513,
      "Ã¡s": 514,
      "ener": 515,
      "Ġpa": 516,
      "das": 517,
      "ario": 518,
      "Ġca": 519,
      "ador": 520,
      "ven": 521,
      "AD": 522,
      "der": 523,
      "CI": 524,
      "ma": 525,
      "Ġrec": 526,
      "iento": 527,
      "ero": 528,
      "Ġor": 529,
      "--------": 530,
      "fec": 531,
      "Ġma": 532,
      "gan": 533,
      "dad": 534,
      "Ġdeb": 535,
      "Ġem": 536,
      "EN": 537,
      "ES": 538,
      "Ġob": 539,
      "fer": 540,
      "99": 541,
      "tar": 542,
      "Ġ200": 543,
      "tivo": 544,
      "ĠB": 545,
      "teri": 546,
      "tiva": 547,
      "Ġinform": 548,
      "fici": 549,
      "AN": 550,
      "tur": 551,
      "entos": 552,
      "ho": 553,
      "Ġsi": 554,
      "Ġti": 555,
      "IG": 556,
      "cional": 557,
      "je": 558,
      "ĠV": 559,
      "Âł": 560,
      "po": 561,
      "Ġci": 562,
      "Ġapl": 563,
      "igu": 564,
      "dic": 565,
      "Ġsus": 566,
      "Ġpo": 567,
      "son": 568,
      "Ġ4": 569,
      "tro": 570,
      "izaciÃ³n": 571,
      "ey": 572,
      "Ġfin": 573,
      "pa": 574,
      "era": 575,
      "Ġdisp": 576,
      "ĠIn": 577,
      "tam": 578,
      "Ġtraba": 579,
      "eneral": 580,
      "ÃŃs": 581,
      "go": 582,
      "ĠUn": 583,
      "Ġseg": 584,
      "ib": 585,
      "ER": 586,
      "uciÃ³n": 587,
      "Ġreg": 588,
      "miento": 589,
      "IGI": 590,
      "Ġ5": 591,
      "Ġad": 592,
      "Ġcas": 593,
      "esti": 594,
      "minis": 595,
      "dr": 596,
      "Ġau": 597,
      "amente": 598,
      "titu": 599,
      "Ġmo": 600,
      "na": 601,
      "Ġform": 602,
      "OS": 603,
      "Ġperson": 604,
      "ha": 605,
      "lam": 606,
      "ico": 607,
      "Ġparti": 608,
      "icaciÃ³n": 609,
      "IGITO": 610,
      "qui": 611,
      "Ġcor": 612,
      "par": 613,
      "AS": 614,
      "bil": 615,
      "MI": 616,
      "iones": 617,
      "iem": 618,
      "vici": 619,
      "01": 620,
      "ac": 621,
      "enta": 622,
      "ĠAr": 623,
      "Ġr": 624,
      "tal": 625,
      "ĠDIGITO": 626,
      "Ġdic": 627,
      "Ãºbl": 628,
      "ces": 629,
      "taciÃ³n": 630,
      "Ġentre": 631,
      "Ġfun": 632,
      "ĠConse": 633,
      "Ġderec": 634,
      "aria": 635,
      "ĠRe": 636,
      "igui": 637,
      "Ġefec": 638,
      "Ã©n": 639,
      "ĠLey": 640,
      "Ġprev": 641,
      "Ãºn": 642,
      "AR": 643,
      "ĠâĢ": 644,
      "cias": 645,
      "ĠH": 646,
      "Ġten": 647,
      "Ġreal": 648,
      "arios": 649,
      "Ġeste": 650,
      "mente": 651,
      "Ã©s": 652,
      "con": 653,
      "le": 654,
      "idas": 655,
      "ĠConsejo": 656,
      "tivos": 657,
      "200": 658,
      "hos": 659,
      "ĠJ": 660,
      "Ġsigui": 661,
      "mpl": 662,
      "ĠEstado": 663,
      "lan": 664,
      "Ġsol": 665,
      "Ġcontra": 666,
      "eces": 667,
      "ĠComisiÃ³n": 668,
      "ĠEs": 669,
      "til": 670,
      "ADO": 671,
      "ca": 672,
      "Ġest": 673,
      "ru": 674,
      "rol": 675,
      "ismo": 676,
      "Ġpue": 677,
      "cu": 678,
      "bor": 679,
      "Ġ6": 680,
      "Ġman": 681,
      "cip": 682,
      "Ġej": 683,
      "tific": 684,
      "ĠDe": 685,
      "Ġcaso": 686,
      "oci": 687,
      "Ġ-": 688,
      "Ġtran": 689,
      "pec": 690,
      "arrol": 691,
      "AL": 692,
      "Ġapar": 693,
      "Ġservici": 694,
      "Ġsin": 695,
      "Ġestable": 696,
      "Ġneces": 697,
      "ĠGeneral": 698,
      "ĠReg": 699,
      "ĠArtÃŃculo": 700,
      "ores": 701,
      "Ġproduc": 702,
      "iden": 703,
      "Ġter": 704,
      "ĠmÃ¡s": 705,
      "Ġco": 706,
      "ens": 707,
      "ĠaÃ±": 708,
      "lamento": 709,
      "icas": 710,
      "ver": 711,
      "uro": 712,
      "Ġactiv": 713,
      "ecre": 714,
      "amiento": 715,
      "),": 716,
      "ĠPar": 717,
      "Ġotr": 718,
      "Ġna": 719,
      "co": 720,
      "clu": 721,
      "Ġestableci": 722,
      "ĠSe": 723,
      "ene": 724,
      "za": 725,
      "uerdo": 726,
      "idos": 727,
      "endo": 728,
      "Ġcomp": 729,
      "arse": 730,
      "antes": 731,
      "ĠPro": 732,
      "iste": 733,
      "Ġpresente": 734,
      "CION": 735,
      "Ġins": 736,
      "bles": 737,
      "Ġcar": 738,
      "ĠLos": 739,
      "respon": 740,
      "zo": 741,
      "no": 742,
      "Ġnorm": 743,
      "Ġdesarrol": 744,
      "las": 745,
      "Ġu": 746,
      "gram": 747,
      "Ġte": 748,
      "IMI": 749,
      "Ġ7": 750,
      "puesto": 751,
      "Ġpodr": 752,
      "Ġespe": 753,
      "Ġempres": 754,
      "urs": 755,
      "Ġcorrespon": 756,
      "tin": 757,
      "cio": 758,
      "Ġcomun": 759,
      "ex": 760,
      "Ġmar": 761,
      "tica": 762,
      "ecciÃ³n": 763,
      "Ġdo": 764,
      "Ã³m": 765,
      "ĠDi": 766,
      "Ġimpor": 767,
      "Ġ9": 768,
      "ĠLA": 769,
      "OR": 770,
      "cri": 771,
      "cedi": 772,
      "Ġautor": 773,
      "Ġcontr": 774,
      "Ġ8": 775,
      "ÃŃas": 776,
      ").": 777,
      "Ġmiem": 778,
      "vo": 779,
      "Ġrela": 780,
      "icos": 781,
      "----------------": 782,
      "tul": 783,
      "imiento": 784,
      "oluciÃ³n": 785,
      "bilidad": 786,
      "ZADO": 787,
      "CE": 788,
      "tivas": 789,
      "laciÃ³n": 790,
      "TI": 791,
      "ga": 792,
      "ific": 793,
      "Ġapartado": 794,
      "Ġ199": 795,
      "ANON": 796,
      "IMIZADO": 797,
      "ANONIMIZADO": 798,
      "adores": 799,
      "Ġobje": 800,
      "Ġconsi": 801,
      "Ġmen": 802,
      "ĠAs": 803,
      "termin": 804,
      "tados": 805,
      "cis": 806,
      "og": 807,
      "Ġdis": 808,
      "arias": 809,
      "Ġtrabajo": 810,
      "Ġdeber": 811,
      "Ġ0": 812,
      "tura": 813,
      "Ġorgan": 814,
      "ĠEstados": 815,
      "Ġab": 816,
      "ĠLas": 817,
      "ĠaplicaciÃ³n": 818,
      "embre": 819,
      "Ġtrabaj": 820,
      "ĠY": 821,
      "uridad": 822,
      "bier": 823,
      "Ġ19": 824,
      "yo": 825,
      "Ġbi": 826,
      "ĠAd": 827,
      "ÃŃo": 828,
      "ĠpÃºbl": 829,
      "ĠpaÃŃs": 830,
      "ĠReglamento": 831,
      "ares": 832,
      "osiciÃ³n": 833,
      "Ã©c": 834,
      "cer": 835,
      "Ġcual": 836,
      "cum": 837,
      "Ġfa": 838,
      "yec": 839,
      "Ġtrans": 840,
      "Ġdetermin": 841,
      "ibu": 842,
      "Ġsolici": 843,
      "Ġparte": 844,
      "mas": 845,
      "ĠÂ": 846,
      "mos": 847,
      "fes": 848,
      "Ġsal": 849,
      "Ġ10": 850,
      "ministra": 851,
      "pi": 852,
      "dific": 853,
      "Ġapro": 854,
      "bros": 855,
      "sa": 856,
      "urope": 857,
      "ĠEN": 858,
      "Ġref": 859,
      "stin": 860,
      "Ġinclu": 861,
      "Ġservicios": 862,
      "truc": 863,
      "Ġrealiz": 864,
      "Ġcompe": 865,
      "ase": 866,
      "cionales": 867,
      "ĠDirec": 868,
      "Ġda": 869,
      "tencia": 870,
      "ya": 871,
      "endi": 872,
      "cep": 873,
      "ran": 874,
      "Ġve": 875,
      "ÃŃn": 876,
      "Ġsuper": 877,
      "ug": 878,
      "Ġprim": 879,
      "biÃ©n": 880,
      "Ġacuerdo": 881,
      "ier": 882,
      "Ġ\"": 883,
      "Ġme": 884,
      "Ġpresent": 885,
      "ticas": 886,
      "__": 887,
      "du": 888,
      "mbi": 889,
      "Ġleg": 890,
      "Ġcada": 891,
      "erv": 892,
      "Ġdesarrollo": 893,
      "ĠPor": 894,
      "ministr": 895,
      "Ġconform": 896,
      "ĠQ": 897,
      "isi": 898,
      "Ġprogram": 899,
      "Ġrespec": 900,
      "anci": 901,
      "Ġactu": 902,
      "ĠasÃŃ": 903,
      "Ġcondi": 904,
      "arÃ¡n": 905,
      "ĠEL": 906,
      "estiÃ³n": 907,
      "gu": 908,
      "Ġcumpl": 909,
      "ĠinformaciÃ³n": 910,
      "Ġval": 911,
      "Ġ[": 912,
      "Ġpol": 913,
      "Ġsiste": 914,
      "anto": 915,
      "conÃ³m": 916,
      "ĠperÃŃo": 917,
      "Ġpla": 918,
      "blec": 919,
      "ple": 920,
      "Ġle": 921,
      "Ġderecho": 922,
      "Ġprevis": 923,
      "alidad": 924,
      "Ã©cn": 925,
      "ord": 926,
      "blig": 927,
      "uman": 928,
      "Ġprocedi": 929,
      "TE": 930,
      "Ġmis": 931,
      "Ġutil": 932,
      "Ã©r": 933,
      "Ġmedidas": 934,
      "can": 935,
      "Ġev": 936,
      "rgan": 937,
      "Ġresul": 938,
      "anti": 939,
      "Ġplan": 940,
      "IS": 941,
      "Ġestablec": 942,
      "ud": 943,
      "ID": 944,
      "ber": 945,
      "venciÃ³n": 946,
      "Ġproyec": 947,
      "Ġ/": 948,
      "Ġsub": 949,
      "Ġnue": 950,
      "Ġbien": 951,
      "man": 952,
      "ĠPR": 953,
      "Ġderechos": 954,
      "Ġinterna": 955,
      "Ãºm": 956,
      "Ġvig": 957,
      "gun": 958,
      "Ġexp": 959,
      "Ġdur": 960,
      "Ġoper": 961,
      "Ġni": 962,
      "terior": 963,
      "Ġcuando": 964,
      "Ġmiembros": 965,
      "IC": 966,
      "pos": 967,
      "ĠComun": 968,
      "Ġhan": 969,
      "me": 970,
      "entr": 971,
      "ecu": 972,
      "Ġcorrespondi": 973,
      "los": 974,
      "Ġdirec": 975,
      "unto": 976,
      "Ġcol": 977,
      "ancia": 978,
      "ju": 979,
      "ĠEurope": 980,
      "Ġtam": 981,
      "ones": 982,
      "Ġposi": 983,
      "UE": 984,
      "Ġrepres": 985,
      "Ġoblig": 986,
      "uesto": 987,
      "Ġpersonal": 988,
      "ceso": 989,
      "Ġmu": 990,
      "ior": 991,
      "ĠperÃŃodo": 992,
      "ĠNaciones": 993,
      "ona": 994,
      "ora": 995,
      "ĠPres": 996,
      "Â»": 997,
      "Ġden": 998,
      "ĠUnidas": 999,
      "Ã©g": 1000,
      "ciales": 1001,
      "mÃ¡s": 1002,
      "Ġforma": 1003,
      "ĠÃ¡": 1004,
      "Ġactividades": 1005,
      "ector": 1006,
      "incip": 1007,
      "tud": 1008,
      "almente": 1009,
      "jer": 1010,
      "ĠresoluciÃ³n": 1011,
      "Ġfinanci": 1012,
      "199": 1013,
      "Ġmodific": 1014,
      "Ġado": 1015,
      "Ġinforme": 1016,
      "ios": 1017,
      "Ġdocum": 1018,
      "ina": 1019,
      "ban": 1020,
      "encias": 1021,
      "ciembre": 1022,
      "Ġsiguiente": 1023,
      "ACION": 1024,
      "Ġpu": 1025,
      "Ġconsider": 1026,
      "ĠÂ«": 1027,
      "ministraciÃ³n": 1028,
      "EC": 1029,
      "ional": 1030,
      "Ġdiciembre": 1031,
      "Ġtodos": 1032,
      "teg": 1033,
      "Ġrespon": 1034,
      "uros": 1035,
      "ĠSeg": 1036,
      "Ã±a": 1037,
      "ĠtambiÃ©n": 1038,
      "Ġade": 1039,
      "itÃ©": 1040,
      "ĠCON": 1041,
      "ĠAc": 1042,
      "ĠpÃ¡": 1043,
      "ĠAl": 1044,
      "Ġsiguientes": 1045,
      "ĠCa": 1046,
      "pre": 1047,
      "obier": 1048,
      "quier": 1049,
      "Ġ11": 1050,
      "cal": 1051,
      "Ġadop": 1052,
      "Ġotros": 1053,
      "ferencia": 1054,
      "inis": 1055,
      "mientos": 1056,
      "echa": 1057,
      "Ġespecial": 1058,
      "Ġaprob": 1059,
      "ign": 1060,
      "Ġprofes": 1061,
      "gos": 1062,
      "quisi": 1063,
      "ĠnÃºm": 1064,
      "va": 1065,
      "ebr": 1066,
      "Ġoc": 1067,
      "ĠCons": 1068,
      "vers": 1069,
      "Âº": 1070,
      "Ġ15": 1071,
      "Ġgeneral": 1072,
      "miti": 1073,
      "Ġ12": 1074,
      "edad": 1075,
      "Ġrecurs": 1076,
      "Ġsitu": 1077,
      "entaciÃ³n": 1078,
      "ĠNo": 1079,
      "paci": 1080,
      "ĠpaÃŃses": 1081,
      "Ġus": 1082,
      "imen": 1083,
      "TR": 1084,
      "Ġmer": 1085,
      "raf": 1086,
      "duci": 1087,
      "ien": 1088,
      "Ġprincip": 1089,
      "Ġcre": 1090,
      "fin": 1091,
      "ĠeconÃ³m": 1092,
      "Ã©gimen": 1093,
      "Ġpersonas": 1094,
      "Ġconstitu": 1095,
      "Ġcuenta": 1096,
      "Ġdos": 1097,
      "Ġ13": 1098,
      "ĠComitÃ©": 1099,
      "imo": 1100,
      "Ġregul": 1101,
      "ĠEsp": 1102,
      "ren": 1103,
      "ĠUN": 1104,
      "exo": 1105,
      "rupo": 1106,
      "ual": 1107,
      "dades": 1108,
      "Ġinc": 1109,
      "Ġson": 1110,
      "Ġcondiciones": 1111,
      "ĠSu": 1112,
      "ĠIm": 1113,
      "Ġ201": 1114,
      "000": 1115,
      "Ġejer": 1116,
      "Ġra": 1117,
      "Ġjur": 1118,
      "ĠpolÃŃ": 1119,
      "clar": 1120,
      "clus": 1121,
      "ĠrelaciÃ³n": 1122,
      "ĠserÃ¡": 1123,
      "ivel": 1124,
      "Ġinde": 1125,
      "Ġproce": 1126,
      "Ġefectos": 1127,
      "Ġ14": 1128,
      "19": 1129,
      "Ġpl": 1130,
      "asta": 1131,
      "ÃŃdic": 1132,
      "Ġaplic": 1133,
      "Ġplazo": 1134,
      "Ġdeclar": 1135,
      "ĠaÃ±o": 1136,
      "Ġdebe": 1137,
      "Ġses": 1138,
      "ĠtÃ©cn": 1139,
      "vis": 1140,
      "ecreto": 1141,
      "Ġgar": 1142,
      "Ġ30": 1143,
      "Ġmater": 1144,
      "cular": 1145,
      "Ġresponsa": 1146,
      "inaciÃ³n": 1147,
      "Ġdurante": 1148,
      "Ġmismo": 1149,
      "TA": 1150,
      "Ġadministra": 1151,
      "Ġfecha": 1152,
      "tario": 1153,
      "Ġmes": 1154,
      "Ġhuman": 1155,
      "obierno": 1156,
      "Ġimp": 1157,
      "Ã±os": 1158,
      "ĠÃ³": 1159,
      "Ġindic": 1160,
      "Ġempresa": 1161,
      "Ġmediante": 1162,
      "abor": 1163,
      "ĠaÃ±os": 1164,
      "ĠMinis": 1165,
      "ambi": 1166,
      "ĠpodrÃ¡": 1167,
      "ritor": 1168,
      "ĠDecreto": 1169,
      "Ġconc": 1170,
      "echo": 1171,
      "Ġ20": 1172,
      "ĠAu": 1173,
      "ĠES": 1174,
      "Ġinici": 1175,
      "istencia": 1176,
      "Ġexpedi": 1177,
      "ÃŃfic": 1178,
      "Ġpes": 1179,
      "ista": 1180,
      "taciones": 1181,
      "Ġlabor": 1182,
      "Ġconsul": 1183,
      "Ġconten": 1184,
      "tulo": 1185,
      "tante": 1186,
      "ativa": 1187,
      "ĠdÃŃa": 1188,
      "riv": 1189,
      "ial": 1190,
      "ĠDEL": 1191,
      "10": 1192,
      "IN": 1193,
      "Ġrespecto": 1194,
      "ĠpÃ¡r": 1195,
      "col": 1196,
      "Ġsistema": 1197,
      "Ġconformidad": 1198,
      "Ġdisposi": 1199,
      "venio": 1200,
      "Ġotras": 1201,
      "Ġproductos": 1202,
      "ve": 1203,
      "car": 1204,
      "ĠSE": 1205,
      "ĠAdministraciÃ³n": 1206,
      "idente": 1207,
      "Ġmateria": 1208,
      "Ġsea": 1209,
      "ĠâĢĵ": 1210,
      "ij": 1211,
      "tecciÃ³n": 1212,
      "Ġcontrol": 1213,
      "UL": 1214,
      "Ġtodo": 1215,
      "cter": 1216,
      "vi": 1217,
      "puesta": 1218,
      "arÃ¡cter": 1219,
      "Ġseguridad": 1220,
      "ĠCO": 1221,
      "Ġtanto": 1222,
      "Ġfuncion": 1223,
      "Ġinteres": 1224,
      "Ġ,": 1225,
      "Ġay": 1226,
      "tico": 1227,
      "ĠTra": 1228,
      "ĠOfici": 1229,
      "ĠseÃ±": 1230,
      "ĠnÃºmero": 1231,
      "Ġmateri": 1232,
      "Ġgas": 1233,
      "Ġdesde": 1234,
      "ĠSecre": 1235,
      "Ġeuros": 1236,
      "ĠcarÃ¡cter": 1237,
      "Ġhor": 1238,
      "Ġparticip": 1239,
      "ĠAn": 1240,
      "ĠReal": 1241,
      "Ġnivel": 1242,
      "Ġtal": 1243,
      "ĠInter": 1244,
      "tegr": 1245,
      "..": 1246,
      "fr": 1247,
      "oper": 1248,
      "lar": 1249,
      "Ġutiliz": 1250,
      "Ġvalor": 1251,
      "clam": 1252,
      "ĠComunidad": 1253,
      "ĠrÃ©gimen": 1254,
      "zar": 1255,
      "uaciÃ³n": 1256,
      "Ġinv": 1257,
      "Ġorden": 1258,
      "Ġhasta": 1259,
      "ĠGobierno": 1260,
      "ĠmÃ¡": 1261,
      "Ġdestin": 1262,
      "Ġdispon": 1263,
      "Ġlug": 1264,
      "ĠIN": 1265,
      "tros": 1266,
      "ÃŃan": 1267,
      "rÃ¡": 1268,
      "Ġmay": 1269,
      "tamente": 1270,
      "Ġparticular": 1271,
      "Ġrecon": 1272,
      "Ġproyecto": 1273,
      "ĠDes": 1274,
      "Ġnormas": 1275,
      "Ġdatos": 1276,
      "tenciÃ³n": 1277,
      "ing": 1278,
      "Ġexam": 1279,
      "dan": 1280,
      "ĠEsta": 1281,
      "Ġreclam": 1282,
      "Ġpuede": 1283,
      "201": 1284,
      "cil": 1285,
      "][": 1286,
      "eros": 1287,
      "ist": 1288,
      "unta": 1289,
      "Ġcal": 1290,
      "ĠOr": 1291,
      "ĠRE": 1292,
      "rim": 1293,
      "ers": 1294,
      "ĠCu": 1295,
      "undi": 1296,
      "ĠII": 1297,
      "ep": 1298,
      "ĠpÃ¡rraf": 1299,
      "Ġactividad": 1300,
      "xto": 1301,
      "cisiÃ³n": 1302,
      "Ġdefin": 1303,
      "Ġcontin": 1304,
      "Ġofici": 1305,
      "Ġafec": 1306,
      "Ġalgun": 1307,
      "ĠPer": 1308,
      "be": 1309,
      "Ġfuer": 1310,
      "ĠÃº": 1311,
      "Ġmej": 1312,
      "Ġsan": 1313,
      "Ġpubl": 1314,
      "Ġnov": 1315,
      "Ġdispuesto": 1316,
      "Ġprocedimiento": 1317,
      "Ġejerci": 1318,
      "gres": 1319,
      "ĠÃ¡mbi": 1320,
      "Ġreci": 1321,
      "Ġ%": 1322,
      "Ġconf": 1323,
      "Ġapo": 1324,
      "Ġgra": 1325,
      "Ġ17": 1326,
      "toria": 1327,
      "Ġ16": 1328,
      "tificaciÃ³n": 1329,
      "Ġli": 1330,
      "Ġcer": 1331,
      "Ġcualquier": 1332,
      "Ġpresu": 1333,
      "Ġbase": 1334,
      "cios": 1335,
      "Ġobjeto": 1336,
      "Ġmanten": 1337,
      "Ġtotal": 1338,
      "20": 1339,
      "lti": 1340,
      "Ã¡l": 1341,
      "Ġi": 1342,
      "Ġinst": 1343,
      "ulio": 1344,
      "Ġcr": 1345,
      "Ġanterior": 1346,
      "ĠLOS": 1347,
      "Ġsido": 1348,
      "ana": 1349,
      "ĠTri": 1350,
      "UR": 1351,
      "iembre": 1352,
      "ĠsegÃºn": 1353,
      "vil": 1354,
      "Ġam": 1355,
      "Ġ18": 1356,
      "ĠÃ³rgan": 1357,
      "ĠjurÃŃdic": 1358,
      "Ġnoviembre": 1359,
      "Ġdisposiciones": 1360,
      "Ġanexo": 1361,
      "Ġlugar": 1362,
      "Ġjulio": 1363,
      "bar": 1364,
      "ĠUniÃ³n": 1365,
      "Ġservicio": 1366,
      "ĠEx": 1367,
      "ĠEuropea": 1368,
      "Ġcomer": 1369,
      "Ġpas": 1370,
      "itar": 1371,
      "Ġqu": 1372,
      "bo": 1373,
      "Ġcap": 1374,
      "ificaciÃ³n": 1375,
      "tada": 1376,
      "taria": 1377,
      "DO": 1378,
      "Ġmayor": 1379,
      "Ġinternacional": 1380,
      "tores": 1381,
      "ĠTrib": 1382,
      "gen": 1383,
      "Ġlegis": 1384,
      "Ġestu": 1385,
      "Ġcel": 1386,
      "tan": 1387,
      "reg": 1388,
      "Ġorganiz": 1389,
      "Ġdicho": 1390,
      "Ġju": 1391,
      "Ġsector": 1392,
      "Ã±o": 1393,
      "undo": 1394,
      "Ġcaus": 1395,
      "Ġrefier": 1396,
      "ĠgestiÃ³n": 1397,
      "ĠQUE": 1398,
      "ĠprotecciÃ³n": 1399,
      "Ġaplica": 1400,
      "omento": 1401,
      "ustr": 1402,
      "ĠÃ": 1403,
      "ĠSer": 1404,
      "Ġterritor": 1405,
      "Ġcorrespondiente": 1406,
      "Ġcos": 1407,
      "Ãºblica": 1408,
      "tribu": 1409,
      "uda": 1410,
      "--------------------------------": 1411,
      "Ġhay": 1412,
      "ias": 1413,
      "ticos": 1414,
      "UN": 1415,
      "trim": 1416,
      "Ġtodas": 1417,
      "stan": 1418,
      "orte": 1419,
      "âĢĿ": 1420,
      "Ġexpres": 1421,
      "ĠSeguridad": 1422,
      "12": 1423,
      "Ġtipo": 1424,
      "ĠestÃ¡": 1425,
      "ĠConvenio": 1426,
      "enefici": 1427,
      "plo": 1428,
      "az": 1429,
      "Ġjun": 1430,
      "terio": 1431,
      "Ġigu": 1432,
      "Ġemple": 1433,
      "ja": 1434,
      "ĠsituaciÃ³n": 1435,
      "dera": 1436,
      "pro": 1437,
      "ĠLAS": 1438,
      "Ġconsecu": 1439,
      "ĠpÃ¡rrafo": 1440,
      "Ġintegr": 1441,
      "aliz": 1442,
      "Ġya": 1443,
      "eti": 1444,
      "Ġrequisi": 1445,
      "Ġrepresent": 1446,
      "ĠdÃŃas": 1447,
      "Ġprograma": 1448,
      "ĠdeberÃ¡": 1449,
      "Ġeval": 1450,
      "ĠNa": 1451,
      "Ġante": 1452,
      "ĠÃºlti": 1453,
      "Ġpropi": 1454,
      "ecuciÃ³n": 1455,
      "Ġ25": 1456,
      "Ã¡c": 1457,
      "bro": 1458,
      "ionales": 1459,
      "Ġestablecido": 1460,
      "dencia": 1461,
      "bajo": 1462,
      "ĠâĢľ": 1463,
      "Ġespec": 1464,
      "ĠRes": 1465,
      "ĠImpuesto": 1466,
      "Ġrecursos": 1467,
      "pacidad": 1468,
      "estig": 1469,
      "ie": 1470,
      "ĠseÃ±al": 1471,
      "Ġinf": 1472,
      "Ġformul": 1473,
      "tre": 1474,
      "Ġz": 1475,
      "Ġtrabajadores": 1476,
      "trimon": 1477,
      "Ġtransp": 1478,
      "Ġjus": 1479,
      "Ġhab": 1480,
      "Ġtiem": 1481,
      "ĠÃ¡mbito": 1482,
      "entro": 1483,
      "serv": 1484,
      "untos": 1485,
      "____": 1486,
      "ĠmÃ¡x": 1487,
      "Ġprop": 1488,
      "Ġ22": 1489,
      "Ġcompro": 1490,
      "visiÃ³n": 1491,
      "Ġpromo": 1492,
      "mis": 1493,
      "Ġjunio": 1494,
      "Ġtiene": 1495,
      "Ġpues": 1496,
      "tural": 1497,
      "Ġcir": 1498,
      "ch": 1499,
      "puestos": 1500,
      "paÃ±": 1501,
      "ENTE": 1502,
      "ĠK": 1503,
      "Ġpos": 1504,
      "ye": 1505,
      "Ġequi": 1506,
      "ducciÃ³n": 1507,
      "Ġur": 1508,
      "Ġperju": 1509,
      "plem": 1510,
      "Ġgener": 1511,
      "Ġcooper": 1512,
      "pti": 1513,
      "ental": 1514,
      "Ġsoci": 1515,
      "ril": 1516,
      "Ġentr": 1517,
      "cado": 1518,
      "Ġmil": 1519,
      "Ġtendr": 1520,
      "Ġri": 1521,
      "Ġmedio": 1522,
      "ĠPresidente": 1523,
      "ĠpodrÃ¡n": 1524,
      "tÃ³n": 1525,
      "Ġmisma": 1526,
      "Ġmujer": 1527,
      "ito": 1528,
      "Ġ31": 1529,
      "Ġnom": 1530,
      "Ġcelebr": 1531,
      "tÃŃculos": 1532,
      "Ġmenos": 1533,
      "igur": 1534,
      "Ġdistin": 1535,
      "Ġvi": 1536,
      "Ġcentr": 1537,
      "Ġ26": 1538,
      "Ġneg": 1539,
      "Ġfal": 1540,
      "ĠSo": 1541,
      "Ġvez": 1542,
      ".-": 1543,
      "Ġtiempo": 1544,
      "RE": 1545,
      "nos": 1546,
      "entas": 1547,
      "icio": 1548,
      "Ġhaya": 1549,
      "Ġvol": 1550,
      "antÃŃ": 1551,
      "ivers": 1552,
      "blem": 1553,
      "olog": 1554,
      "Ġestablece": 1555,
      "Ġrefiere": 1556,
      "ĠâĢĶ": 1557,
      "Ġdeci": 1558,
      "quel": 1559,
      "Ġbienes": 1560,
      "ĠSi": 1561,
      "Ġejercicio": 1562,
      "Ġotra": 1563,
      "Ġnacional": 1564,
      "âĢĥ": 1565,
      "Ġoperaciones": 1566,
      "Ġenero": 1567,
      "ĠespecÃŃfic": 1568,
      "ĠmÃ©": 1569,
      "tadas": 1570,
      "Ġhoras": 1571,
      "ea": 1572,
      "erg": 1573,
      "11": 1574,
      "Ġtitul": 1575,
      "zas": 1576,
      "Ġuno": 1577,
      "Ġadecu": 1578,
      "Ġuso": 1579,
      "30": 1580,
      "Ġproceso": 1581,
      "Ġbenefici": 1582,
      "Ġdicha": 1583,
      "ĠdisposiciÃ³n": 1584,
      "Ġmarzo": 1585,
      "Ġesti": 1586,
      "Ġestos": 1587,
      "Ġ24": 1588,
      "ĠtÃ©r": 1589,
      "Ġgaranti": 1590,
      "Ġestudi": 1591,
      "Ġtrata": 1592,
      "Ġentidades": 1593,
      "lev": 1594,
      "Ġsesiones": 1595,
      "Ġreun": 1596,
      "Ġotro": 1597,
      "Ġver": 1598,
      "mar": 1599,
      "Ġinstal": 1600,
      "Ġexpediente": 1601,
      "Ġindi": 1602,
      "Ġsent": 1603,
      "Ġley": 1604,
      "cimiento": 1605,
      "tÃ³nom": 1606,
      "ĠprÃ¡c": 1607,
      "Ġfij": 1608,
      "Ġcumplimiento": 1609,
      "MP": 1610,
      "Ġpropuesta": 1611,
      "Ġpartes": 1612,
      "ili": 1613,
      "pciÃ³n": 1614,
      "Ġcasos": 1615,
      "Ã³g": 1616,
      "Ġmencion": 1617,
      "ARA": 1618,
      "Ġsocial": 1619,
      "ible": 1620,
      "echos": 1621,
      "Ġentidad": 1622,
      "ĠartÃŃculos": 1623,
      "Ġ21": 1624,
      "Ġsegu": 1625,
      "Ġ//": 1626,
      "ĠPara": 1627,
      "dam": 1628,
      "Ġcompet": 1629,
      "Ġadi": 1630,
      "unal": 1631,
      "Ġhumanos": 1632,
      "ĠDer": 1633,
      "Ġelem": 1634,
      "Ġdesp": 1635,
      "Ġsuperior": 1636,
      "ismos": 1637,
      "ÃŃcul": 1638,
      "Ġexig": 1639,
      "Ġdentro": 1640,
      "ĠmÃŃn": 1641,
      "Ġdeben": 1642,
      "Ġpartir": 1643,
      "port": 1644,
      "Ġrequisitos": 1645,
      "Ġsiem": 1646,
      "Ġprogramas": 1647,
      "has": 1648,
      "dustr": 1649,
      "ĠDis": 1650,
      "Ġsuje": 1651,
      "Ġhacer": 1652,
      "Ġmejor": 1653,
      "Ġaquel": 1654,
      "Ġcanti": 1655,
      "Ġ29": 1656,
      "Ġ198": 1657,
      "Ġregis": 1658,
      "Ġbas": 1659,
      "ĠtÃ©rmin": 1660,
      "Ġinvestig": 1661,
      "crito": 1662,
      "ĠRep": 1663,
      "Ġantes": 1664,
      "Ġsiempre": 1665,
      "amble": 1666,
      "ĠÃ©s": 1667,
      "Ġigual": 1668,
      "DI": 1669,
      "aron": 1670,
      "Ġfunciones": 1671,
      "itaciÃ³n": 1672,
      "TER": 1673,
      "Ġprofesional": 1674,
      "ĠDirectiva": 1675,
      "Ġobten": 1676,
      "ino": 1677,
      "partam": 1678,
      "tir": 1679,
      "Ġcri": 1680,
      "ĠpÃºblico": 1681,
      "iendo": 1682,
      "Ġlim": 1683,
      "Ġtras": 1684,
      "Ġtres": 1685,
      "Ġinm": 1686,
      "Ġhecho": 1687,
      "Ġcambi": 1688,
      "Ġese": 1689,
      "Ġraz": 1690,
      "ĠEspa": 1691,
      "amblea": 1692,
      "Ġimporte": 1693,
      "Ġabril": 1694,
      "eno": 1695,
      "ĠejecuciÃ³n": 1696,
      "Ġdifer": 1697,
      "Ġsa": 1698,
      "tis": 1699,
      "Ġorig": 1700,
      "tubre": 1701,
      "Ġasistencia": 1702,
      "Ġries": 1703,
      "Ġelabor": 1704,
      "Ġ28": 1705,
      "Ġempresas": 1706,
      "OL": 1707,
      "Ġresponsabilidad": 1708,
      "Ġmomento": 1709,
      "Ġof": 1710,
      "Ġoctubre": 1711,
      "ĠdemÃ¡s": 1712,
      "omen": 1713,
      "Ġdon": 1714,
      "mite": 1715,
      "ibuciÃ³n": 1716,
      "ĠMinisterio": 1717,
      "Ġvir": 1718,
      "Ġello": 1719,
      "Ġrelacion": 1720,
      "Ġobst": 1721,
      "ĠRepÃºblica": 1722,
      "Ġ23": 1723,
      "entales": 1724,
      "ĠtÃŃ": 1725,
      "Ġmeses": 1726,
      "Ġpunto": 1727,
      "Ġgastos": 1728,
      "Ġapoyo": 1729,
      "Ġefectu": 1730,
      "ĠIns": 1731,
      "50": 1732,
      "ĠCatal": 1733,
      "ĠGrupo": 1734,
      "Ġconte": 1735,
      "ĠAsamblea": 1736,
      "Ġ27": 1737,
      "iber": 1738,
      "gua": 1739,
      "Ġobserv": 1740,
      "ĠÃºn": 1741,
      "ĠDirecciÃ³n": 1742,
      "ĠOrden": 1743,
      "Ġinstitu": 1744,
      "Ã©di": 1745,
      "ĠSal": 1746,
      "Ġvigor": 1747,
      "ĠSU": 1748,
      "Ġnuev": 1749,
      "Ã³lo": 1750,
      "teriores": 1751,
      "ducaciÃ³n": 1752,
      "Ġviv": 1753,
      "Ġpueden": 1754,
      "ÃŃtulo": 1755,
      "ĠDO": 1756,
      "Ġampl": 1757,
      "RA": 1758,
      "Ġ*": 1759,
      "Ġsean": 1760,
      "ĠSecretario": 1761,
      "cepto": 1762,
      "ĠServici": 1763,
      "bras": 1764,
      "tegor": 1765,
      "emos": 1766,
      "Ġmayo": 1767,
      "ĠformaciÃ³n": 1768,
      "Ġpropor": 1769,
      "Ġextra": 1770,
      "Ġcl": 1771,
      "ĠAcuerdo": 1772,
      "Ã³di": 1773,
      "et": 1774,
      "ĠPlan": 1775,
      "Ġfinal": 1776,
      "Ġautoriz": 1777,
      "TOS": 1778,
      "Ġconj": 1779,
      "Ġfigur": 1780,
      "ĠSocial": 1781,
      "Ġconsecuencia": 1782,
      "pen": 1783,
      "ĠcuestiÃ³n": 1784,
      "Ġpon": 1785,
      "Ġsolicitud": 1786,
      "rac": 1787,
      "Ġtexto": 1788,
      "Ġpersona": 1789,
      "tantes": 1790,
      "dentes": 1791,
      "Ġpero": 1792,
      "ĠTribunal": 1793,
      "ĠOrgan": 1794,
      "tad": 1795,
      "Ġmiembro": 1796,
      "Ġfue": 1797,
      "ena": 1798,
      "ÃŃsticas": 1799,
      "Ġsim": 1800,
      "Ġcorrespondientes": 1801,
      "ĠMedi": 1802,
      "spec": 1803,
      "Ġles": 1804,
      "ĠserÃ¡n": 1805,
      "orpor": 1806,
      "ordin": 1807,
      "Ġag": 1808,
      "Ġnecesario": 1809,
      "dose": 1810,
      "Ġmarco": 1811,
      "Ġespeci": 1812,
      "zos": 1813,
      "ĠdeberÃ¡n": 1814,
      "mn": 1815,
      "ĠcooperaciÃ³n": 1816,
      "Ġreconoci": 1817,
      "ĠVal": 1818,
      "ital": 1819,
      "uel": 1820,
      "Ġcontribu": 1821,
      "Ġgrupo": 1822,
      "acter": 1823,
      "oc": 1824,
      "Ġinstr": 1825,
      "Ġexamin": 1826,
      "II": 1827,
      "enen": 1828,
      "terios": 1829,
      "EX": 1830,
      "Ġrefer": 1831,
      "ĠInterna": 1832,
      "ĠproducciÃ³n": 1833,
      "Ġpatrimon": 1834,
      "Ġarreg": 1835,
      "Ġcuesti": 1836,
      "ĠOficial": 1837,
      "Ġvirtud": 1838,
      "ves": 1839,
      "IA": 1840,
      "Ġacceso": 1841,
      "Ġop": 1842,
      "stancias": 1843,
      "Ġprue": 1844,
      "Ãĵ": 1845,
      "MEN": 1846,
      "Ġprevisto": 1847,
      "Ġfir": 1848,
      "ĠCE": 1849,
      "ĠfunciÃ³n": 1850,
      "ensa": 1851,
      "Ġprec": 1852,
      "he": 1853,
      "ima": 1854,
      "ĠPa": 1855,
      "cup": 1856,
      "ĠHa": 1857,
      "MA": 1858,
      "uales": 1859,
      "Ġfacil": 1860,
      "Ġfon": 1861,
      "cel": 1862,
      "Ġprimera": 1863,
      "irÃ¡": 1864,
      "Ġelec": 1865,
      "ĠPRO": 1866,
      "Ġtrabajador": 1867,
      "Ġprepar": 1868,
      "198": 1869,
      "bas": 1870,
      "Ġmedios": 1871,
      "turas": 1872,
      "rig": 1873,
      "Ġindemn": 1874,
      "Ġgr": 1875,
      "anza": 1876,
      "IO": 1877,
      "Ġposible": 1878,
      "ĠCo": 1879,
      "ĠAdministra": 1880,
      "tamen": 1881,
      "Ġurban": 1882,
      "Ġembar": 1883,
      "Ġconta": 1884,
      "ĠPOR": 1885,
      "40": 1886,
      "Ġaum": 1887,
      "ed": 1888,
      "trucciÃ³n": 1889,
      "Ġfundam": 1890,
      "Ġhu": 1891,
      "ptiembre": 1892,
      "Ġalcan": 1893,
      "13": 1894,
      "torio": 1895,
      "Ġresol": 1896,
      "entar": 1897,
      "Ġprocedimientos": 1898,
      "ĠÃ©": 1899,
      "err": 1900,
      "ĠparticipaciÃ³n": 1901,
      "ĠestÃ¡n": 1902,
      "Ġarreglo": 1903,
      "hÃŃcul": 1904,
      "ducir": 1905,
      "ULO": 1906,
      "Ġllev": 1907,
      "Ġorganizaciones": 1908,
      "Ġgu": 1909,
      "Ġestas": 1910,
      "Ġtener": 1911,
      "Ġseptiembre": 1912,
      "Ġestablecer": 1913,
      "ĠlegislaciÃ³n": 1914,
      "Ġfor": 1915,
      "Ġbu": 1916,
      "Ġtem": 1917,
      "ticia": 1918,
      "Ġmanera": 1919,
      "Ġsom": 1920,
      "Ġagr": 1921,
      "Ġfav": 1922,
      "Ġnacionales": 1923,
      "Ġfuncionamiento": 1924,
      "Ġprimer": 1925,
      "Ġobstante": 1926,
      "Ã³l": 1927,
      "Ġacre": 1928,
      "ĠlÃŃ": 1929,
      "ĠevaluaciÃ³n": 1930,
      "Ã³digo": 1931,
      "partamento": 1932,
      "unici": 1933,
      "Ġfu": 1934,
      "tras": 1935,
      "ĠOR": 1936,
      "tarÃŃa": 1937,
      "Ġmercado": 1938,
      "Ġreferencia": 1939,
      "ĠbÃ¡s": 1940,
      "Ġapor": 1941,
      "ece": 1942,
      "Ġcul": 1943,
      "tric": 1944,
      "Ġdefini": 1945,
      "Ġcapacidad": 1946,
      "Ġfr": 1947,
      "ĠSin": 1948,
      "LA": 1949,
      "Ġcalidad": 1950,
      "Ġinternacionales": 1951,
      "Ġtoda": 1952,
      "Ġambi": 1953,
      "Ġcategor": 1954,
      "Ġiden": 1955,
      "Âª": 1956,
      "Ġinstrum": 1957,
      "ĠsÃ³lo": 1958,
      "adr": 1959,
      "Ġcomple": 1960,
      "Ġconforme": 1961,
      "ĠMar": 1962,
      "CEE": 1963,
      "Ġconoci": 1964,
      "unda": 1965,
      "Ġcaracter": 1966,
      "cun": 1967,
      "Ġelementos": 1968,
      "Ġobjetivos": 1969,
      "Ġderiv": 1970,
      "manente": 1971,
      "\".": 1972,
      "Ġconven": 1973,
      "Ġnatural": 1974,
      "Ġcomunic": 1975,
      "Ġanti": 1976,
      "Ġpriv": 1977,
      "tribuciÃ³n": 1978,
      "antÃŃa": 1979,
      "ton": 1980,
      "Ġingres": 1981,
      "Ġexper": 1982,
      "ĠSan": 1983,
      "Ġhayan": 1984,
      "Ġsociedad": 1985,
      "Ġtar": 1986,
      "Ġconsidera": 1987,
      "SI": 1988,
      "ĠpolÃŃtica": 1989,
      "ecn": 1990,
      "ĠdeclaraciÃ³n": 1991,
      "itaria": 1992,
      "Ġcircun": 1993,
      "Ġviol": 1994,
      "ĠvehÃŃcul": 1995,
      "isis": 1996,
      "Ġsalud": 1997,
      "Ġk": 1998,
      "Ġdictamen": 1999,
      "cen": 2000,
      "ĠniÃ±os": 2001,
      "fi": 2002,
      "Ġdeleg": 2003,
      "ĠcrÃ©di": 2004,
      "Ġfam": 2005,
      "Ġefecto": 2006,
      "15": 2007,
      "Ġconcre": 2008,
      "ami": 2009,
      "ag": 2010,
      "Ġ100": 2011,
      "Ġsustitu": 2012,
      "ÃĵN": 2013,
      "ebrero": 2014,
      "porte": 2015,
      "urr": 2016,
      "Ġmi": 2017,
      "Ġcomplem": 2018,
      "Ġclas": 2019,
      "cripciÃ³n": 2020,
      "ĠEm": 2021,
      "Ġperjuicio": 2022,
      "ĠPRES": 2023,
      "ativas": 2024,
      "Ġmedida": 2025,
      "14": 2026,
      "Ġproblem": 2027,
      "eza": 2028,
      "bir": 2029,
      "Ġfebrero": 2030,
      "ĠX": 2031,
      "Ġdocumento": 2032,
      "tivamente": 2033,
      "tencias": 2034,
      "ĠConvenciÃ³n": 2035,
      "ĠpÃºblica": 2036,
      "ĠÃģ": 2037,
      "IDAD": 2038,
      "inas": 2039,
      "Ġcuestiones": 2040,
      "80": 2041,
      "Ġ2004": 2042,
      "Ġcivil": 2043,
      "Ġnormativa": 2044,
      "posiciÃ³n": 2045,
      "Ġ2005": 2046,
      "Ġayuda": 2047,
      "ĠAutÃ³nom": 2048,
      "ara": 2049,
      "ĠTo": 2050,
      "gas": 2051,
      "ĠTer": 2052,
      "portun": 2053,
      "amos": 2054,
      "ĠCuando": 2055,
      "itario": 2056,
      "imismo": 2057,
      "Ġautoridades": 2058,
      "Ġterritorio": 2059,
      "tion": 2060,
      "Ġhaber": 2061,
      "ĠEspe": 2062,
      "ĠÃ³rganos": 2063,
      "Ġmujeres": 2064,
      "Ġgran": 2065,
      "ĠmÃ¡ximo": 2066,
      "ĠhabÃŃa": 2067,
      "cales": 2068,
      "ĠEX": 2069,
      "Ġtransporte": 2070,
      "Ġesa": 2071,
      "ĠRec": 2072,
      "ĠAL": 2073,
      "omÃŃa": 2074,
      "Ġcuanto": 2075,
      "edades": 2076,
      "25": 2077,
      "Ġinvers": 2078,
      "ĠCA": 2079,
      "Ġcompetencia": 2080,
      "Ġrecurso": 2081,
      "Ġvo": 2082,
      "derÃ¡": 2083,
      "ĠtÃŃtulo": 2084,
      "ĠParlamento": 2085,
      "ĠInform": 2086,
      "eo": 2087,
      "Ġrel": 2088,
      "ĠorganizaciÃ³n": 2089,
      "Ġoportun": 2090,
      "Ġnues": 2091,
      "ĠInternacional": 2092,
      "uÃ±a": 2093,
      "Ġ2006": 2094,
      "Ġacuer": 2095,
      "Ġcan": 2096,
      "MO": 2097,
      "ivo": 2098,
      "Ġefic": 2099,
      "BL": 2100,
      "Ġcurs": 2101,
      "enes": 2102,
      "Ġindustr": 2103,
      "Ġdesem": 2104,
      "ĠNacional": 2105,
      "gado": 2106,
      "Ġpuesto": 2107,
      "etas": 2108,
      "Ġaplicable": 2109,
      "Ġcam": 2110,
      "60": 2111,
      "ĠinvestigaciÃ³n": 2112,
      "Ġdisc": 2113,
      "Ġpuedan": 2114,
      "dia": 2115,
      "Ġestablecidos": 2116,
      "adora": 2117,
      "Ġtales": 2118,
      "ĠSub": 2119,
      "les": 2120,
      "Ġ2000": 2121,
      "Ġincorpor": 2122,
      "ĠdecisiÃ³n": 2123,
      "ĠAC": 2124,
      "Ġ2002": 2125,
      "Ġestruc": 2126,
      "ĠFin": 2127,
      "Ġestar": 2128,
      "Ġdom": 2129,
      "turales": 2130,
      "Ġtienen": 2131,
      "Ġtu": 2132,
      "Ġfac": 2133,
      "ienda": 2134,
      "Ġvin": 2135,
      "undial": 2136,
      "Ġfis": 2137,
      "Ġqui": 2138,
      "Ġcontrato": 2139,
      "Ġsegundo": 2140,
      "ĠrealizaciÃ³n": 2141,
      "Ġacredi": 2142,
      "ĠatenciÃ³n": 2143,
      "ĠautorizaciÃ³n": 2144,
      "Ġrecomen": 2145,
      "ĠCataluÃ±a": 2146,
      "Ġcriterios": 2147,
      "Ġnuevo": 2148,
      "Ġobligaciones": 2149,
      "seÃ±": 2150,
      "dente": 2151,
      "Ġsig": 2152,
      "Ġescrito": 2153,
      "Ġmec": 2154,
      "Ġresultados": 2155,
      "ez": 2156,
      "Ġmon": 2157,
      "udas": 2158,
      "Ġsistemas": 2159,
      "vÃ©s": 2160,
      "tificado": 2161,
      "ĠPol": 2162,
      "Ġcabo": 2163,
      "Ġentrada": 2164,
      "ĠtravÃ©s": 2165,
      "Ġcompr": 2166,
      "lu": 2167,
      "Ġinclus": 2168,
      "Ġejem": 2169,
      "Â°": 2170,
      "ĠmodificaciÃ³n": 2171,
      "ĠtÃ©rminos": 2172,
      "dar": 2173,
      "Ġequ": 2174,
      "unicip": 2175,
      "Ã³s": 2176,
      "22": 2177,
      "Ġgenerales": 2178,
      "Ġ2003": 2179,
      "Ġmani": 2180,
      "ĠreclamaciÃ³n": 2181,
      "ĠDepartamento": 2182,
      "ĠCU": 2183,
      "Ġpago": 2184,
      "ĠMa": 2185,
      "Ġ50": 2186,
      "IR": 2187,
      "ĠParte": 2188,
      "Ġmuy": 2189,
      "Ġinfer": 2190,
      "fa": 2191,
      "ĠEuropeo": 2192,
      "ĠCar": 2193,
      "ques": 2194,
      "Ġ2001": 2195,
      "ĠeconÃ³mica": 2196,
      "Ġcontenido": 2197,
      "Ã¡fic": 2198,
      "Ġcin": 2199,
      "tocol": 2200,
      "ĠPÃºbl": 2201,
      "gÃ¡n": 2202,
      "ĠAy": 2203,
      "Ġmantenimiento": 2204,
      "Ġdocumentos": 2205,
      "ĠCh": 2206,
      "Ġconsulta": 2207,
      "Ġconces": 2208,
      "Ġinformes": 2209,
      "Ġdivers": 2210,
      "lic": 2211,
      "Ġrealizar": 2212,
      "ĠCol": 2213,
      "ĠProgram": 2214,
      "16": 2215,
      "Ġlaboral": 2216,
      "pendi": 2217,
      "TAR": 2218,
      "Ãį": 2219,
      "ICI": 2220,
      "ĠPartes": 2221,
      "olÃ³g": 2222,
      "iales": 2223,
      "Ġpueda": 2224,
      "ide": 2225,
      "com": 2226,
      "Ġprecis": 2227,
      "Ġexplo": 2228,
      "Ġtercer": 2229,
      "orn": 2230,
      "uÃ©s": 2231,
      "Ġestado": 2232,
      "rupos": 2233,
      "Ġinstalaciones": 2234,
      "ĠEspaÃ±a": 2235,
      "TIV": 2236,
      "Ġpresupues": 2237,
      "Ġgarantizar": 2238,
      "ativo": 2239,
      "ĠQue": 2240,
      "eras": 2241,
      "Ġdonde": 2242,
      "fe": 2243,
      "TIC": 2244,
      "ficiente": 2245,
      "Ġproyectos": 2246,
      "Ġprofesionales": 2247,
      "quiera": 2248,
      "ita": 2249,
      "ĠprestaciÃ³n": 2250,
      "Ġnecesidades": 2251,
      "ĠcomÃºn": 2252,
      "Ġcuya": 2253,
      "ala": 2254,
      "Ġdirig": 2255,
      "asa": 2256,
      "Ġcolabor": 2257,
      "Ġliber": 2258,
      "puestas": 2259,
      "Ġnecesidad": 2260,
      "TES": 2261,
      "Ã³r": 2262,
      "Ġpertin": 2263,
      "ĠSoci": 2264,
      "ĠPARA": 2265,
      "eas": 2266,
      "vid": 2267,
      "TU": 2268,
      "ĠcomunicaciÃ³n": 2269,
      "misiÃ³n": 2270,
      "ĠdaÃ±os": 2271,
      "Ġcentros": 2272,
      "Ġreglam": 2273,
      "udad": 2274,
      "Ġadicional": 2275,
      "dicial": 2276,
      "Ġrecog": 2277,
      "Ġ90": 2278,
      "Ġestra": 2279,
      "Ġproducto": 2280,
      "ĠutilizaciÃ³n": 2281,
      "70": 2282,
      "Ġembargo": 2283,
      "ologÃŃa": 2284,
      ".,": 2285,
      "ĠDel": 2286,
      "ider": 2287,
      "ensiÃ³n": 2288,
      "RES": 2289,
      "ano": 2290,
      "ĠÃ³rgano": 2291,
      "ĠAde": 2292,
      "Ġcargo": 2293,
      "Ġcompetente": 2294,
      "Ġpaz": 2295,
      "egur": 2296,
      "Ġencu": 2297,
      "ĠPerson": 2298,
      "anos": 2299,
      "so": 2300,
      "Ġsentido": 2301,
      "ÃŃm": 2302,
      "tual": 2303,
      "Ġauto": 2304,
      "ĠpublicaciÃ³n": 2305,
      "ĠtendrÃ¡": 2306,
      "Ġrespe": 2307,
      ");": 2308,
      "ĠPo": 2309,
      "icamente": 2310,
      "Ġaprobado": 2311,
      "van": 2312,
      "idaciÃ³n": 2313,
      "Ġcantidad": 2314,
      "Ġconsum": 2315,
      "idencia": 2316,
      "ĠBar": 2317,
      "Ġnombre": 2318,
      "Ġelectr": 2319,
      "Ġtribu": 2320,
      "Ġmodo": 2321,
      "ĠMo": 2322,
      "Ġrelativas": 2323,
      "Ġasign": 2324,
      "ALES": 2325,
      "istas": 2326,
      "RI": 2327,
      "ĠPre": 2328,
      "ĠinterÃ©s": 2329,
      "ĠTrabajo": 2330,
      "mitir": 2331,
      "dac": 2332,
      "Ġhom": 2333,
      "ĠTEX": 2334,
      "ĠDerechos": 2335,
      "Ġimpl": 2336,
      "tran": 2337,
      "Ġalim": 2338,
      "Ġâ": 2339,
      "izar": 2340,
      "itos": 2341,
      "Ġmin": 2342,
      "ĠEspecial": 2343,
      "onas": 2344,
      "18": 2345,
      "Ġpobl": 2346,
      "esiÃ³n": 2347,
      "tÃ³": 2348,
      "ĠUnivers": 2349,
      "ular": 2350,
      "ula": 2351,
      "Ġcolec": 2352,
      "Ġcontempl": 2353,
      "Ġpe": 2354,
      "ĠTEXTO": 2355,
      "Ġhace": 2356,
      "Ġsos": 2357,
      "quer": 2358,
      "vin": 2359,
      "tarse": 2360,
      "Ġexcep": 2361,
      "tarÃ¡": 2362,
      "Ġorganismos": 2363,
      "ice": 2364,
      "ĠpolÃŃticas": 2365,
      "Ġhabi": 2366,
      "ĠpÃºblicas": 2367,
      "ĠsesiÃ³n": 2368,
      "Ġ2007": 2369,
      "Ġcontinu": 2370,
      "Ġba": 2371,
      "Ġtram": 2372,
      "Ġmuc": 2373,
      "Ġgrupos": 2374,
      "Ġreserv": 2375,
      "Ġcentro": 2376,
      "ĠEste": 2377,
      "ĠTÃ©cn": 2378,
      "ĠfÃŃs": 2379,
      "ĠÃºltimo": 2380,
      "Ġtecn": 2381,
      "17": 2382,
      "Ġprecep": 2383,
      "ĠEstatu": 2384,
      "23": 2385,
      "Ġexclus": 2386,
      "Ġsino": 2387,
      "Ġcomercial": 2388,
      "24": 2389,
      "Ġempleo": 2390,
      "Ġ2008": 2391,
      "idi": 2392,
      "ordinaciÃ³n": 2393,
      "arrollo": 2394,
      "ĠAR": 2395,
      "val": 2396,
      "Ġimportante": 2397,
      "adrid": 2398,
      "bern": 2399,
      "leg": 2400,
      "Ġmercan": 2401,
      "Ġdeba": 2402,
      "ĠmÃŃnimo": 2403,
      "Ġesf": 2404,
      "ĠdespuÃ©s": 2405,
      "ĠInstitu": 2406,
      "Ġimport": 2407,
      "Ġnueva": 2408,
      "Ġcompetencias": 2409,
      "Ġta": 2410,
      "Ġvac": 2411,
      "Ġperci": 2412,
      "ĠademÃ¡s": 2413,
      "Ġrelativa": 2414,
      "Ġasegur": 2415,
      "cos": 2416,
      "rem": 2417,
      "ĠAN": 2418,
      "Ġinferior": 2419,
      "Ġproces": 2420,
      "Ġvincul": 2421,
      "ĠSr": 2422,
      "ĠpresentaciÃ³n": 2423,
      "Ġejecu": 2424,
      "ĠEconÃ³m": 2425,
      "ĠAdemÃ¡s": 2426,
      "tens": 2427,
      "Ã¡m": 2428,
      "ĠaprobaciÃ³n": 2429,
      "Ġcambio": 2430,
      "Ġredac": 2431,
      "Ġluc": 2432,
      "Ġfuera": 2433,
      "Ġfabr": 2434,
      "ĠJus": 2435,
      "Ġaudi": 2436,
      "Ġprovis": 2437,
      "ĠZ": 2438,
      "Ġtitular": 2439,
      "Ġjustific": 2440,
      "uciones": 2441,
      "ociaciÃ³n": 2442,
      "Ġproporcion": 2443,
      "ĠMadrid": 2444,
      "Ġplante": 2445,
      "ĠTam": 2446,
      "Ġletra": 2447,
      "ĠConstitu": 2448,
      "Ġacep": 2449,
      "poner": 2450,
      "Ġactuaciones": 2451,
      "esor": 2452,
      "AC": 2453,
      "Ġpublic": 2454,
      "Ġcorrec": 2455,
      "ĠDesarrollo": 2456,
      "Ġlocal": 2457,
      "Ġcircunstancias": 2458,
      "ĠJunta": 2459,
      "Ġvalores": 2460,
      "miso": 2461,
      "Ġexist": 2462,
      "Ġprocede": 2463,
      "ono": 2464,
      "edia": 2465,
      "Ġsatis": 2466,
      "ĠfinanciaciÃ³n": 2467,
      "dida": 2468,
      "Ã¡lisis": 2469,
      "SE": 2470,
      "Ġconflic": 2471,
      "gar": 2472,
      "itarios": 2473,
      "venciones": 2474,
      "ts": 2475,
      "Ġanim": 2476,
      "Ã¡ndose": 2477,
      "Ġmismos": 2478,
      "ĠEmpres": 2479,
      "Ġmateriales": 2480,
      "Ġconvo": 2481,
      "Ġmecan": 2482,
      "stancia": 2483,
      "ĠjurÃŃdico": 2484,
      "ĠpÃºblicos": 2485,
      "Ġanteriores": 2486,
      "Ġcier": 2487,
      "Ġfavor": 2488,
      "Ġexamen": 2489,
      "ĠConsider": 2490,
      "Ġfalta": 2491,
      "2003": 2492,
      "Ġzona": 2493,
      "ĠCor": 2494,
      "Ġenerg": 2495,
      "Ġdesign": 2496,
      "Ġpen": 2497,
      "Ġsegunda": 2498,
      "ĠeducaciÃ³n": 2499,
      "ĠcaracterÃŃsticas": 2500,
      "PE": 2501,
      "ĠCÃ³digo": 2502,
      "Ġciudad": 2503,
      "pel": 2504,
      "gencia": 2505,
      "igr": 2506,
      "Ġventa": 2507,
      "ĠOficina": 2508,
      "ĠDecisiÃ³n": 2509,
      "rue": 2510,
      "Ġrelativo": 2511,
      "Ġdecir": 2512,
      "ĠOb": 2513,
      "ĠPrograma": 2514,
      "Ġsel": 2515,
      "tando": 2516,
      "Ġesfuer": 2517,
      "ĠtÃ©cnicas": 2518,
      "ĠtÃ©cnica": 2519,
      "cto": 2520,
      "Ġcuyo": 2521,
      "Ġprevistos": 2522,
      "Ġcompar": 2523,
      "dap": 2524,
      "Ġsupuesto": 2525,
      "Ġpresupuesto": 2526,
      "tiz": 2527,
      "pu": 2528,
      "Ġnecesarias": 2529,
      "Ã©l": 2530,
      "Ġenten": 2531,
      "Ġdiferentes": 2532,
      "Ġlogr": 2533,
      "ADOS": 2534,
      "Ġobjetivo": 2535,
      "Ġencar": 2536,
      "jos": 2537,
      "Ġellos": 2538,
      "Ġrequer": 2539,
      "Ġpuestos": 2540,
      "ĠConferencia": 2541,
      "Ġinstituciones": 2542,
      "Ġvolun": 2543,
      "ĠIII": 2544,
      "unque": 2545,
      "Ġejemplo": 2546,
      "Ġnorma": 2547,
      "ĠindemnizaciÃ³n": 2548,
      "ĠdocumentaciÃ³n": 2549,
      "Ġestablecimiento": 2550,
      "Ġjorn": 2551,
      "Ġespecific": 2552,
      "Ġ40": 2553,
      "ĠacciÃ³n": 2554,
      "ĠOrganizaciÃ³n": 2555,
      "Ġacuerdos": 2556,
      "Ġtransi": 2557,
      "iza": 2558,
      "ĠTratado": 2559,
      "Ġanual": 2560,
      "Ġextraordin": 2561,
      "Ġcuo": 2562,
      "yen": 2563,
      "Ġaf": 2564,
      "din": 2565,
      "ivos": 2566,
      "Ġaspec": 2567,
      "Ġzonas": 2568,
      "90": 2569,
      "iÃ³": 2570,
      "tel": 2571,
      "rir": 2572,
      "Ġsex": 2573,
      "Ġrepresentantes": 2574,
      "ĠCan": 2575,
      "Ġtengan": 2576,
      "tera": 2577,
      "Ġcausa": 2578,
      "DA": 2579,
      "Ġprevistas": 2580,
      "Ġesos": 2581,
      "ĠFon": 2582,
      "Ġtempor": 2583,
      "Ġriesgo": 2584,
      "tividad": 2585,
      "eb": 2586,
      "ura": 2587,
      "Ġclar": 2588,
      "eci": 2589,
      "Ġdichos": 2590,
      "ĠJusticia": 2591,
      "atro": 2592,
      "ĠHuman": 2593,
      "Ġpri": 2594,
      "enda": 2595,
      "ecer": 2596,
      "usiÃ³n": 2597,
      "Ġexis": 2598,
      "Ġro": 2599,
      "tocolo": 2600,
      "Ġacciones": 2601,
      "gosto": 2602,
      "ĠConsiderando": 2603,
      "Ġabs": 2604,
      "fac": 2605,
      "pendencia": 2606,
      "Ġindivid": 2607,
      "ĠW": 2608,
      "lones": 2609,
      "Ġfondos": 2610,
      "Ġarmas": 2611,
      "Ġcumplir": 2612,
      "ĠCentro": 2613,
      "75": 2614,
      "paÃ±ol": 2615,
      "ĠcondiciÃ³n": 2616,
      "ĠcreaciÃ³n": 2617,
      "Ġsociales": 2618,
      "IL": 2619,
      "Ġbajo": 2620,
      "Ã³lares": 2621,
      "ĠJe": 2622,
      "26": 2623,
      "ĠJu": 2624,
      "isto": 2625,
      "eran": 2626,
      "ĠprevenciÃ³n": 2627,
      "iva": 2628,
      "ĠespaÃ±ol": 2629,
      "Ġ1999": 2630,
      "ĠmÃ©to": 2631,
      "ĠconcesiÃ³n": 2632,
      "Ġah": 2633,
      "Ġconduc": 2634,
      "Ġprincipio": 2635,
      "Ġconjunto": 2636,
      "ĠrepresentaciÃ³n": 2637,
      "Ġtratamiento": 2638,
      "Ġprincipios": 2639,
      "Ġcuales": 2640,
      "Ġaplicar": 2641,
      "Ġpudi": 2642,
      "________": 2643,
      "ĠGu": 2644,
      "tales": 2645,
      "iente": 2646,
      "Ġampli": 2647,
      "ĠcategorÃŃa": 2648,
      "arial": 2649,
      "Ġintro": 2650,
      "Ã¼": 2651,
      "bres": 2652,
      "Ġsec": 2653,
      "ole": 2654,
      "Ġotor": 2655,
      "bal": 2656,
      "Ġpesetas": 2657,
      "Ġdar": 2658,
      "Ġdecis": 2659,
      "Ġadap": 2660,
      "Ġarm": 2661,
      "Ġagosto": 2662,
      "eron": 2663,
      "Ġadministrativa": 2664,
      "Ġobliga": 2665,
      "Ġproduci": 2666,
      "Ġincluidos": 2667,
      "Ġacer": 2668,
      "Ġmunicip": 2669,
      "ĠIs": 2670,
      "ival": 2671,
      "nas": 2672,
      "ĠServicio": 2673,
      "ingÃºn": 2674,
      "Ġconcepto": 2675,
      "ormente": 2676,
      "Ġeurope": 2677,
      "Ġactos": 2678,
      "ĠreuniÃ³n": 2679,
      "ĠdÃ³lares": 2680,
      "ENER": 2681,
      "Ġobras": 2682,
      "33": 2683,
      "Ġadoptar": 2684,
      "CIA": 2685,
      "Ġnaturaleza": 2686,
      "ultura": 2687,
      "teriormente": 2688,
      "Ġincrem": 2689,
      "ĠNO": 2690,
      "Ġmaterial": 2691,
      "Ġvigente": 2692,
      "ĠrevisiÃ³n": 2693,
      "Ġautoridad": 2694,
      "Ġnecesarios": 2695,
      "Ã¡lo": 2696,
      "ibles": 2697,
      "Ġrendi": 2698,
      "ĠTambiÃ©n": 2699,
      "ĠSecretarÃŃa": 2700,
      "Ġsiendo": 2701,
      "Ġorigin": 2702,
      "Â».": 2703,
      "Ġdesempe": 2704,
      "ĠprÃ¡ctica": 2705,
      "tudes": 2706,
      "Ġrecib": 2707,
      "Ġsometi": 2708,
      "Ġadministrativo": 2709,
      "Ġdespl": 2710,
      "ĠreducciÃ³n": 2711,
      "Ġequipos": 2712,
      "Ġespecialmente": 2713,
      "Ġactual": 2714,
      "Ġdif": 2715,
      "Ġlocales": 2716,
      "Ġenfer": 2717,
      "ĠobligaciÃ³n": 2718,
      "unci": 2719,
      "Ġquin": 2720,
      "ĠdirecciÃ³n": 2721,
      "jas": 2722,
      "28": 2723,
      "Ġven": 2724,
      "ĠeconÃ³mico": 2725,
      "Ġregistro": 2726,
      "ĠactuaciÃ³n": 2727,
      "tades": 2728,
      "ĠconsideraciÃ³n": 2729,
      "Ġ00": 2730,
      "Ġestudios": 2731,
      "48": 2732,
      "Ġdichas": 2733,
      "29": 2734,
      "Ġcomunidad": 2735,
      "Ġqued": 2736,
      "Ġestablecidas": 2737,
      "ĠDirector": 2738,
      "Ġgrado": 2739,
      "ocia": 2740,
      "ĠlÃŃn": 2741,
      "Ġadquisi": 2742,
      "Ġpel": 2743,
      "Ġinmedia": 2744,
      "ĠRegis": 2745,
      "Ġmul": 2746,
      "ĠningÃºn": 2747,
      "Ġmaterias": 2748,
      "Ġorigen": 2749,
      "ĠelectrÃ³n": 2750,
      "Ġayudas": 2751,
      "ĠtendrÃ¡n": 2752,
      "Ġvida": 2753,
      "Ġdeterminar": 2754,
      "uelo": 2755,
      "Ġjornada": 2756,
      "ech": 2757,
      "ADA": 2758,
      "Ġprevia": 2759,
      "ras": 2760,
      "gÃ¡nica": 2761,
      "rea": 2762,
      "Ġimportancia": 2763,
      "estruc": 2764,
      "TULO": 2765,
      "Ġsalvo": 2766,
      "ror": 2767,
      "pone": 2768,
      "Ġlibre": 2769,
      "Ġexpl": 2770,
      "Ġatribu": 2771,
      "Ġalguna": 2772,
      "Ġhubi": 2773,
      "ĠpromociÃ³n": 2774,
      "Ġconserv": 2775,
      "Ġprecio": 2776,
      "DE": 2777,
      "culo": 2778,
      "ĠLo": 2779,
      "TEN": 2780,
      "Ġmillones": 2781,
      "Ġpermi": 2782,
      "Ġocup": 2783,
      "ĠoperaciÃ³n": 2784,
      "ucle": 2785,
      "ĠexplotaciÃ³n": 2786,
      "Ġespeciales": 2787,
      "Ġesc": 2788,
      "ingun": 2789,
      "ĠMiem": 2790,
      "amientos": 2791,
      "ese": 2792,
      "Ġdese": 2793,
      "ĠPrim": 2794,
      "dica": 2795,
      "Ġteniendo": 2796,
      "Ġori": 2797,
      "Ġlleg": 2798,
      "CIÃĵN": 2799,
      "ÃŃstica": 2800,
      "ĠPÃºblicas": 2801,
      "Ġlar": 2802,
      "hi": 2803,
      "Ġexce": 2804,
      "Ġagua": 2805,
      "Ġ--------------------------------": 2806,
      "Ġdoc": 2807,
      "Ġdiscrim": 2808,
      "Ġesas": 2809,
      "isiones": 2810,
      "adi": 2811,
      "Ġmismas": 2812,
      "2006": 2813,
      "Ġingresos": 2814,
      "ĠpoblaciÃ³n": 2815,
      "Ġera": 2816,
      "ilo": 2817,
      "Ġdirectamente": 2818,
      "Ġinstrumentos": 2819,
      "Ġemiti": 2820,
      "Ġprecios": 2821,
      "ĠenseÃ±": 2822,
      "Ġlic": 2823,
      "Ġaleg": 2824,
      "Ġtur": 2825,
      "irse": 2826,
      "ĠAP": 2827,
      "ĠJur": 2828,
      "78": 2829,
      "Ġtenga": 2830,
      "ĠAdministraciones": 2831,
      "Ġnuevas": 2832,
      "Ġsusp": 2833,
      "Ġriesgos": 2834,
      "MB": 2835,
      "ĠcoordinaciÃ³n": 2836,
      "Ġcinco": 2837,
      "TADO": 2838,
      "Ġpoder": 2839,
      "55": 2840,
      "ĠDisposiciÃ³n": 2841,
      "Ġexpor": 2842,
      "ĠAyunta": 2843,
      "Ġ)": 2844,
      "Ġparcial": 2845,
      "her": 2846,
      "conomÃŃa": 2847,
      "ĠAutÃ³noma": 2848,
      "Ġsosten": 2849,
      "ACIONES": 2850,
      "Ġpropia": 2851,
      "daciones": 2852,
      "Ġperio": 2853,
      "Ġfacul": 2854,
      "Ġmode": 2855,
      "ĠMan": 2856,
      "NAL": 2857,
      "eder": 2858,
      "icios": 2859,
      "ĠAsimismo": 2860,
      "Ġaju": 2861,
      "):": 2862,
      "Ġresulta": 2863,
      "Ġcontratos": 2864,
      "Ġunivers": 2865,
      "Ġaquellos": 2866,
      "zca": 2867,
      "ĠGENER": 2868,
      "Ġaten": 2869,
      "Ġaqu": 2870,
      "Ġcapital": 2871,
      "ĠORIGI": 2872,
      "celona": 2873,
      "ĠEuro": 2874,
      "2005": 2875,
      "Ġposibilidad": 2876,
      "\",": 2877,
      "Ġlegal": 2878,
      "Ã©ase": 2879,
      "ĠResoluciÃ³n": 2880,
      "Ġprior": 2881,
      "Ġsubs": 2882,
      "Ġpresentar": 2883,
      "ĠDIS": 2884,
      "Ġreglament": 2885,
      "2002": 2886,
      "Ġresolver": 2887,
      "Ġacci": 2888,
      "Ġintereses": 2889,
      "Ġ|-": 2890,
      "Ġequival": 2891,
      "Ġthe": 2892,
      "Ġpertinentes": 2893,
      "Ġocas": 2894,
      "Ġil": 2895,
      "oso": 2896,
      "46": 2897,
      "Ġproblemas": 2898,
      "Ġresultado": 2899,
      "ĠMon": 2900,
      "Ġdec": 2901,
      "ĠEstatuto": 2902,
      "El": 2903,
      "Ġ60": 2904,
      "bilidades": 2905,
      "tÃŃn": 2906,
      "Ġterror": 2907,
      "Ġnota": 2908,
      "Ġterren": 2909,
      "bernam": 2910,
      "ĠORIGINAL": 2911,
      "drÃ¡": 2912,
      "ĠEj": 2913,
      "ĠanÃ¡lisis": 2914,
      "ĠBarcelona": 2915,
      "Ġacord": 2916,
      "ĠdistribuciÃ³n": 2917,
      "Ġcurso": 2918,
      "Ġinteresado": 2919,
      "Ġtom": 2920,
      "Ġterc": 2921,
      "iencia": 2922,
      "Ġfiscal": 2923,
      "ERA": 2924,
      "ariamente": 2925,
      "ĠServicios": 2926,
      "Ġmues": 2927,
      "ĠVI": 2928,
      "Ġliqu": 2929,
      "tarios": 2930,
      "21": 2931,
      "Ġestim": 2932,
      "Ġw": 2933,
      "MIN": 2934,
      "Ġnuevos": 2935,
      "ĠadministraciÃ³n": 2936,
      "43": 2937,
      "ĠComunidades": 2938,
      "Ġextran": 2939,
      "Ġprueba": 2940,
      "ĠIV": 2941,
      "Ġfigura": 2942,
      "Ġconce": 2943,
      "ĠForm": 2944,
      "und": 2945,
      "ĠProtocolo": 2946,
      "Ġcompetentes": 2947,
      "ĠestÃ©": 2948,
      "icen": 2949,
      "Ġfuncionarios": 2950,
      "Ġplanes": 2951,
      "Ġdenom": 2952,
      "ĠSeÃ±": 2953,
      "idamente": 2954,
      "IF": 2955,
      "adoras": 2956,
      "Ġcompren": 2957,
      "ĠvÃŃa": 2958,
      "Ġcomplement": 2959,
      "Ġapartados": 2960,
      "Ġjudicial": 2961,
      "Ġsign": 2962,
      "ĠDec": 2963,
      "ICA": 2964,
      "PA": 2965,
      "Ġretribu": 2966,
      "2001": 2967,
      "ĠcapÃŃtulo": 2968,
      "ĠduraciÃ³n": 2969,
      "Ġ2009": 2970,
      "mÃ¡": 2971,
      "Ġet": 2972,
      "cam": 2973,
      "Ġpatrimonial": 2974,
      "Ġcuatro": 2975,
      "ĠHumanos": 2976,
      "Ġvista": 2977,
      "ĠÃŃn": 2978,
      "guas": 2979,
      "ĠTran": 2980,
      "umen": 2981,
      "Ġpuntos": 2982,
      "Ġdecisiones": 2983,
      "Ġesfuerzos": 2984,
      "Ġaspectos": 2985,
      "frica": 2986,
      "Ġdetal": 2987,
      "grÃ¡fic": 2988,
      "forma": 2989,
      "anzas": 2990,
      "Ġdistintos": 2991,
      "ĠEnti": 2992,
      "Ġningun": 2993,
      "RO": 2994,
      "ĠInstituto": 2995,
      "UC": 2996,
      "ĠSiste": 2997,
      "45": 2998,
      "79": 2999,
      "ĠestarÃ¡": 3000,
      "Ġprodu": 3001,
      "ĠDerecho": 3002,
      "63": 3003,
      "jes": 3004,
      "ĠAyuntamiento": 3005,
      "irÃ¡n": 3006,
      "Ġsolicitudes": 3007,
      "73": 3008,
      "lado": 3009,
      "ĠelaboraciÃ³n": 3010,
      "Ġmanda": 3011,
      "Ġtrabajos": 3012,
      "Ġdispone": 3013,
      "ev": 3014,
      "ĠSuper": 3015,
      "li": 3016,
      "ĠcontinuaciÃ³n": 3017,
      "UES": 3018,
      "Ġnucle": 3019,
      "Ġmejorar": 3020,
      "Ġjuris": 3021,
      "acia": 3022,
      "Ġenferme": 3023,
      "Ġcantidades": 3024,
      "tÃº": 3025,
      "1992": 3026,
      "ociaciones": 3027,
      "La": 3028,
      "Ġpruebas": 3029,
      "Ġvivienda": 3030,
      "ulaciÃ³n": 3031,
      "Ġhabr": 3032,
      "cin": 3033,
      "2004": 3034,
      "iliar": 3035,
      "Ġalgunos": 3036,
      "Ġestrateg": 3037,
      "Ã©ctr": 3038,
      "Ġproteg": 3039,
      "Ġrepar": 3040,
      "Ġigualdad": 3041,
      "uta": 3042,
      "Ġdef": 3043,
      "Ġsupuestos": 3044,
      "ĠHA": 3045,
      "ĠcrÃ©dito": 3046,
      "ibilidad": 3047,
      "ĠValor": 3048,
      "Ġindependi": 3049,
      "Ġencuent": 3050,
      "dal": 3051,
      "ĠAnexo": 3052,
      "Ġpeti": 3053,
      "Â»,": 3054,
      "Ġcomercio": 3055,
      "Ġalter": 3056,
      "Ġcomprendi": 3057,
      "ler": 3058,
      "ĠRegistro": 3059,
      "idu": 3060,
      "ĠEmpresa": 3061,
      "Ġcomb": 3062,
      "quen": 3063,
      "itarias": 3064,
      "Ġpromover": 3065,
      "Ġcompens": 3066,
      "ĠUna": 3067,
      "cas": 3068,
      "ĠprÃ¡cticas": 3069,
      "undido": 3070,
      "Ġprestaciones": 3071,
      "Ġsuficiente": 3072,
      "ĠDic": 3073,
      "ĠrazÃ³n": 3074,
      "ISTR": 3075,
      "ĠÃ©ste": 3076,
      "aba": 3077,
      "Ġalum": 3078,
      "IEN": 3079,
      "ĠFondo": 3080,
      "ĠTR": 3081,
      "Ġtema": 3082,
      "ĠjurÃŃdica": 3083,
      "58": 3084,
      "Ġcitado": 3085,
      "ĠComo": 3086,
      "Ġelim": 3087,
      "Ġensa": 3088,
      "76": 3089,
      "bos": 3090,
      "ERO": 3091,
      "Ġporque": 3092,
      "ulo": 3093,
      "Ġacom": 3094,
      "Ġvia": 3095,
      "2000": 3096,
      "Ġ38": 3097,
      "Ġabon": 3098,
      "ĠFa": 3099,
      "Ġsuperfici": 3100,
      "CIONES": 3101,
      "Ġinfrac": 3102,
      "ĠAm": 3103,
      "Ġqueda": 3104,
      "ĠREG": 3105,
      "100": 3106,
      "Ġpartici": 3107,
      "2007": 3108,
      "zado": 3109,
      "Ġne": 3110,
      "ĠJurÃŃdic": 3111,
      "CO": 3112,
      "Ġaprue": 3113,
      "Ġpermanente": 3114,
      "Ġnecesaria": 3115,
      "Ġincum": 3116,
      "jero": 3117,
      "Ġevalu": 3118,
      "ĠadopciÃ³n": 3119,
      "mites": 3120,
      "Ġoficial": 3121,
      "Ġconsultante": 3122,
      "Ġdesesti": 3123,
      "ĠContra": 3124,
      "Ġesper": 3125,
      "Ġseis": 3126,
      "Ġacog": 3127,
      "Ġcuar": 3128,
      "Ġfrente": 3129,
      "Ġ1998": 3130,
      "Ġreclamante": 3131,
      "Ġaplicables": 3132,
      "Ġfirm": 3133,
      "Ġpropio": 3134,
      "Ġcapaci": 3135,
      "Ġsubvenciones": 3136,
      "Ġinterpre": 3137,
      "blo": 3138,
      "Ġ39": 3139,
      "ĠImporte": 3140,
      "Ġincluso": 3141,
      "ativos": 3142,
      "Ġfi": 3143,
      "Ġpreo": 3144,
      "ĠcolaboraciÃ³n": 3145,
      "adamente": 3146,
      "Ġart": 3147,
      "Ġcompon": 3148,
      "Ġfinancieros": 3149,
      "Ġprogres": 3150,
      "ĠCAP": 3151,
      "ĠSO": 3152,
      "ĠestÃ©n": 3153,
      "ĠordenaciÃ³n": 3154,
      "Ġfacilitar": 3155,
      "misos": 3156,
      "ĠvehÃŃculo": 3157,
      "ĠvehÃŃculos": 3158,
      "Ġfamil": 3159,
      "Ġred": 3160,
      "irm": 3161,
      "Ãĳ": 3162,
      "Ġconclus": 3163,
      "Ġincluidas": 3164,
      "Ġlista": 3165,
      "Ġdisf": 3166,
      "ĠBan": 3167,
      "Ġva": 3168,
      "ĠpÃ©r": 3169,
      "ĠQu": 3170,
      "1999": 3171,
      "ĠadquisiciÃ³n": 3172,
      "Ġasoci": 3173,
      "Ġequipo": 3174,
      "tec": 3175,
      "quir": 3176,
      "NU": 3177,
      "tida": 3178,
      "Ġobtener": 3179,
      "ĠsÃŃ": 3180,
      "Ġopin": 3181,
      "Ġsigue": 3182,
      "ĠGENERAL": 3183,
      "ĠDo": 3184,
      "Ġconstituye": 3185,
      "ĠME": 3186,
      "Ġestablecen": 3187,
      "ĠAD": 3188,
      "tiene": 3189,
      "ĠEUR": 3190,
      "Ġho": 3191,
      "Ġrecomendaciones": 3192,
      "Ġalma": 3193,
      "ĠsecciÃ³n": 3194,
      "ĠinversiÃ³n": 3195,
      "Ġgraves": 3196,
      "ĠUnidos": 3197,
      "Ġrepresentante": 3198,
      "centa": 3199,
      "Ġrevis": 3200,
      "oletÃŃn": 3201,
      "ĠgÃ©n": 3202,
      "Ġespa": 3203,
      "ĠPermanente": 3204,
      "ĠEducaciÃ³n": 3205,
      "ĠConstituciÃ³n": 3206,
      "egu": 3207,
      "cambi": 3208,
      "Ġrelaciones": 3209,
      "Ġconocimiento": 3210,
      "Ã³x": 3211,
      "Ġtrate": 3212,
      "pas": 3213,
      "capacidad": 3214,
      "0000": 3215,
      "IE": 3216,
      "Ġmercanc": 3217,
      "Ġaunque": 3218,
      "ĠVisto": 3219,
      "ĠEuropa": 3220,
      "Ġfines": 3221,
      "Ġprocesos": 3222,
      "ĠcuantÃŃa": 3223,
      "Ġsepar": 3224,
      "ĠvÃŃ": 3225,
      "Ġ33": 3226,
      "Ġprincipales": 3227,
      "49": 3228,
      "ĠregulaciÃ³n": 3229,
      "Ġreconocimiento": 3230,
      "ĠPresu": 3231,
      "bol": 3232,
      "ĠCOM": 3233,
      "ÃŃcol": 3234,
      "specciÃ³n": 3235,
      "Ġtipos": 3236,
      "ĠTerritor": 3237,
      "ientes": 3238,
      "Ġviolencia": 3239,
      "ÃįTULO": 3240,
      "Ġsignific": 3241,
      "Ġ35": 3242,
      "adro": 3243,
      "Ġeduc": 3244,
      "Ġerr": 3245,
      "Ġconcedi": 3246,
      "ĠpÃ¡g": 3247,
      "05": 3248,
      "Ġordin": 3249,
      "ĠdeberÃŃa": 3250,
      "Ġprincipal": 3251,
      "Ġesen": 3252,
      "ĠMA": 3253,
      "Ġdeman": 3254,
      "Ġdisfru": 3255,
      "Ġcualquiera": 3256,
      "Ġahora": 3257,
      "ĠCOMP": 3258,
      "Ġban": 3259,
      "Ġ:": 3260,
      "ĠconstrucciÃ³n": 3261,
      "ĠMundial": 3262,
      "ĠÃ©sta": 3263,
      "entemente": 3264,
      "Ġambiente": 3265,
      "Ġconvoca": 3266,
      "Ġregistr": 3267,
      "cados": 3268,
      "uso": 3269,
      "Ġaj": 3270,
      "Ġfinalidad": 3271,
      "Ġedad": 3272,
      "Ġpapel": 3273,
      "...": 3274,
      "ĠPAR": 3275,
      "Ġconst": 3276,
      "ĠtÃ©cnico": 3277,
      "ĠSecciÃ³n": 3278,
      "cha": 3279,
      "ĠPER": 3280,
      "ĠtramitaciÃ³n": 3281,
      "Ġnotific": 3282,
      "77": 3283,
      "ĠUNA": 3284,
      "Ġseguimiento": 3285,
      "Ġpropuestas": 3286,
      "Ġresponsable": 3287,
      "Ġlargo": 3288,
      "izado": 3289,
      "pia": 3290,
      "Ġconsol": 3291,
      "later": 3292,
      "imos": 3293,
      "Ġauton": 3294,
      "yan": 3295,
      "ĠMIN": 3296,
      "Ġcuentas": 3297,
      "icidad": 3298,
      "Ġpropios": 3299,
      "Ġimpon": 3300,
      "Ġsimil": 3301,
      "Ġcertificado": 3302,
      "adido": 3303,
      "Ġninguna": 3304,
      "Ġsup": 3305,
      "Ġconclu": 3306,
      "ĠAsuntos": 3307,
      "Ġprevista": 3308,
      "Ġmantener": 3309,
      "Ġadu": 3310,
      "ĠâĢ¢": 3311,
      "enci": 3312,
      "IV": 3313,
      "Ġrelacionadas": 3314,
      "ĠProcedi": 3315,
      "iores": 3316,
      "Ġestructura": 3317,
      "Ġdecidi": 3318,
      "ĠCas": 3319,
      "dificaciÃ³n": 3320,
      "68": 3321,
      "ĠenergÃŃa": 3322,
      "Ã±as": 3323,
      "ĠdeterminaciÃ³n": 3324,
      "Ġanimales": 3325,
      "ORM": 3326,
      "Ġdeterminados": 3327,
      "ĠDeclar": 3328,
      "Ġlegisla": 3329,
      "ĠcrÃ©ditos": 3330,
      "Ġusu": 3331,
      "Ġvigil": 3332,
      "rag": 3333,
      "tece": 3334,
      "ine": 3335,
      "Ġconvenio": 3336,
      "Ġdesarroll": 3337,
      "ĠCiv": 3338,
      "ĠdiscriminaciÃ³n": 3339,
      "Ġfinanciera": 3340,
      "ĠCap": 3341,
      "fo": 3342,
      "ĠOrgÃ¡nica": 3343,
      "bla": 3344,
      "ĠLe": 3345,
      "Ġsatisfac": 3346,
      "ĠregiÃ³n": 3347,
      "Ġajust": 3348,
      "zcan": 3349,
      "Ġperman": 3350,
      "DIGITO": 3351,
      "Ġterceros": 3352,
      "arÃŃa": 3353,
      "Ġprevio": 3354,
      "Ġrelativos": 3355,
      "icÃŃa": 3356,
      "Ġintercambi": 3357,
      "Ġdecre": 3358,
      "ĠCivil": 3359,
      "ferencias": 3360,
      "Ġdice": 3361,
      "ĠAgencia": 3362,
      "ENTO": 3363,
      "ĠSEC": 3364,
      "pati": 3365,
      "ĠLO": 3366,
      "ĠRÃ©gimen": 3367,
      "CA": 3368,
      "35": 3369,
      "eter": 3370,
      "Ġrepresenta": 3371,
      "ĠPr": 3372,
      "Ġ2010": 3373,
      "US": 3374,
      "tido": 3375,
      "ensiones": 3376,
      "ĠCentr": 3377,
      "Ġir": 3378,
      "ĠintervenciÃ³n": 3379,
      "Ġimposi": 3380,
      "En": 3381,
      "ĠmayorÃŃa": 3382,
      "44": 3383,
      "Ġadquir": 3384,
      "yos": 3385,
      "blemente": 3386,
      "Ġregionales": 3387,
      "Ġcelebrada": 3388,
      "Ġexistencia": 3389,
      "Ġ1997": 3390,
      "IZ": 3391,
      "ĠESTA": 3392,
      "27": 3393,
      "Ĥ¬": 3394,
      "ÃŃti": 3395,
      "Ġpeque": 3396,
      "Ġmundo": 3397,
      "ĠdelegaciÃ³n": 3398,
      "Ġposterior": 3399,
      "cti": 3400,
      "Ġrelacionados": 3401,
      "bilitaciÃ³n": 3402,
      "Ġplen": 3403,
      "IDA": 3404,
      "ĠPolÃŃ": 3405,
      "Ġrad": 3406,
      "ĠJefe": 3407,
      "Ġdepor": 3408,
      "dico": 3409,
      "Ġprovisional": 3410,
      "Ġpresentado": 3411,
      "Ãºs": 3412,
      "ĠMinistro": 3413,
      "65": 3414,
      "ĠlÃŃmite": 3415,
      "Ġporcenta": 3416,
      "ĠTribu": 3417,
      "Ġvis": 3418,
      "icar": 3419,
      "antÃŃas": 3420,
      "Ġenv": 3421,
      "Ġedi": 3422,
      "Ġunidades": 3423,
      "Ġsociedades": 3424,
      "Ġlibertad": 3425,
      "ĠeconÃ³micas": 3426,
      "bia": 3427,
      "ĠNorm": 3428,
      "alizar": 3429,
      "Ġresoluciones": 3430,
      "ĠPRE": 3431,
      "stas": 3432,
      "ĠMedio": 3433,
      "ong": 3434,
      "cido": 3435,
      "Ġrealizadas": 3436,
      "ĠSER": 3437,
      "Ġremiti": 3438,
      "Ġpropiedad": 3439,
      "yecto": 3440,
      "LO": 3441,
      "Ġhechos": 3442,
      "ĠRES": 3443,
      "ĠeconÃ³micos": 3444,
      "icultura": 3445,
      "Ġniveles": 3446,
      "Ġvarios": 3447,
      "ĠVII": 3448,
      "Ġaumento": 3449,
      "Ġ----------------------------------------------------------------": 3450,
      "vier": 3451,
      "ĠnotificaciÃ³n": 3452,
      "ne": 3453,
      "ĠprevÃ©": 3454,
      "Ġnaturales": 3455,
      "ĠÃºltima": 3456,
      "ĠcontrataciÃ³n": 3457,
      "bernamentales": 3458,
      "Ġtemporal": 3459,
      "Ġtransform": 3460,
      "ĠtÃ©rmino": 3461,
      "Ġinci": 3462,
      "Ġunidad": 3463,
      "tarias": 3464,
      "QU": 3465,
      "ĠMiembros": 3466,
      "Ġreuniones": 3467,
      "Ġincumpl": 3468,
      "Ġglo": 3469,
      "Ġpreocup": 3470,
      "Ġrecu": 3471,
      "torias": 3472,
      "Ã³d": 3473,
      "Ġseman": 3474,
      "Ġsituaciones": 3475,
      "Ġ+": 3476,
      "Ġrefundido": 3477,
      "Ġdado": 3478,
      "Ġlucha": 3479,
      "ap": 3480,
      "ĠCONS": 3481,
      "Ġesfer": 3482,
      "ĠPersonal": 3483,
      "Ġhi": 3484,
      "Ġellas": 3485,
      "Ġmodificaciones": 3486,
      "ĠDur": 3487,
      "âĢĵ": 3488,
      "Ġobra": 3489,
      "Ġsolo": 3490,
      "cepciÃ³n": 3491,
      "ania": 3492,
      "Ġevitar": 3493,
      "Ġmundial": 3494,
      "ĠBa": 3495,
      "Ã¡r": 3496,
      "ĠvÃŃcti": 3497,
      "Ġdescri": 3498,
      "Ġexclu": 3499,
      "ite": 3500,
      "ĠelÃ©ctr": 3501,
      "Ġmandato": 3502,
      "LE": 3503,
      "ĠperiÃ³": 3504,
      "Ġantece": 3505,
      "ĠautÃ³nom": 3506,
      "Ġpresupuestaria": 3507,
      "ĠpodrÃŃa": 3508,
      "atos": 3509,
      "ĠPl": 3510,
      "Ġmulti": 3511,
      "Ġciudadanos": 3512,
      "ĠgarantÃŃa": 3513,
      "Ġdesplaz": 3514,
      "Ġis": 3515,
      "TAS": 3516,
      "ĠtransmisiÃ³n": 3517,
      "93": 3518,
      "ocer": 3519,
      "baj": 3520,
      "entÃŃfic": 3521,
      "Ġcitada": 3522,
      "ĠâĤ¬": 3523,
      "ĠComer": 3524,
      "Ġformas": 3525,
      "Ġrespuesta": 3526,
      "Ġexen": 3527,
      "ĠCR": 3528,
      "Ġexistentes": 3529,
      "Ġvari": 3530,
      "tilla": 3531,
      "Ġafectados": 3532,
      "Ġnos": 3533,
      "Ġperten": 3534,
      "ĠlÃŃnea": 3535,
      "Ġdirecta": 3536,
      "ĠUE": 3537,
      "TERI": 3538,
      "tarÃ¡n": 3539,
      "raestruc": 3540,
      "Ġtermin": 3541,
      "iliares": 3542,
      "ĠDES": 3543,
      "Ġinstruc": 3544,
      "ĠFis": 3545,
      "Ġconsigui": 3546,
      "TOR": 3547,
      "Ġcorresponde": 3548,
      "ĠmÃ¡xima": 3549,
      "ĠÃºnico": 3550,
      "Ġmenor": 3551,
      "th": 3552,
      "Ġ...": 3553,
      "66": 3554,
      "MENTO": 3555,
      "Ġlimit": 3556,
      "iados": 3557,
      "Ġand": 3558,
      "Ġrefle": 3559,
      "Ġdistintas": 3560,
      "ĠtrÃ¡": 3561,
      "ĠmercancÃŃas": 3562,
      "Ġestad": 3563,
      "Ã¡logo": 3564,
      "Ġdep": 3565,
      "ĠÃģfrica": 3566,
      "Ġsuces": 3567,
      "tiles": 3568,
      "ĠaplicarÃ¡": 3569,
      "jeros": 3570,
      "ĠConsul": 3571,
      "ĠFun": 3572,
      "Ġetc": 3573,
      "ĠAÃ±": 3574,
      "erÃŃa": 3575,
      "ĠSalud": 3576,
      "istÃ¡n": 3577,
      "Ġ1996": 3578,
      "ĠFor": 3579,
      "ĠvaloraciÃ³n": 3580,
      "ĠDeclaraciÃ³n": 3581,
      "ĠReino": 3582,
      "ĠDISP": 3583,
      "Ġfortal": 3584,
      "Ġlograr": 3585,
      "af": 3586,
      "Ġmotivos": 3587,
      "ĠsubvenciÃ³n": 3588,
      "98": 3589,
      "Ġdeterminadas": 3590,
      "IM": 3591,
      "ich": 3592,
      "ĠComis": 3593,
      "ĠDeleg": 3594,
      "ab": 3595,
      "Ġestudio": 3596,
      "ĠpeticiÃ³n": 3597,
      "reo": 3598,
      "Ġcertific": 3599,
      "iduos": 3600,
      "ĠredacciÃ³n": 3601,
      "emor": 3602,
      "Ġescal": 3603,
      "Ġfondo": 3604,
      "Ġcomprob": 3605,
      "ĠhabÃŃan": 3606,
      "IER": 3607,
      "Ġcabe": 3608,
      "Ġllevar": 3609,
      "Ġtareas": 3610,
      "ĠFran": 3611,
      "Ġ1995": 3612,
      "ĠGeneralidad": 3613,
      "ĠAgr": 3614,
      "Ġidentific": 3615,
      "Ġesto": 3616,
      "Ġdomici": 3617,
      "alestin": 3618,
      "OSI": 3619,
      "uls": 3620,
      "Ġmodelo": 3621,
      "38": 3622,
      "roga": 3623,
      "Ã¨": 3624,
      "Ġprimero": 3625,
      "ĠHaci": 3626,
      "Ġnegoci": 3627,
      "ariales": 3628,
      "Ġpie": 3629,
      "Ġsuelo": 3630,
      "Ġdestino": 3631,
      "Ġreserva": 3632,
      "fies": 3633,
      "Ġeficacia": 3634,
      "ama": 3635,
      "ĠTur": 3636,
      "ĠespecÃŃficas": 3637,
      "Ġmens": 3638,
      "02": 3639,
      "Ġmecanismos": 3640,
      "Ġcontexto": 3641,
      "OD": 3642,
      "Ġefectivo": 3643,
      "Ġrein": 3644,
      "Ġconsumo": 3645,
      "ĠMu": 3646,
      "Ġcompromiso": 3647,
      "Ġgrave": 3648,
      "Ġabier": 3649,
      "Ġrazones": 3650,
      "Ġmejora": 3651,
      "ION": 3652,
      "Ġreducir": 3653,
      "Ġadju": 3654,
      "tulos": 3655,
      "Ã©rica": 3656,
      "Ġpartida": 3657,
      "tizaciÃ³n": 3658,
      "onia": 3659,
      "Ġserie": 3660,
      "Ġperiodo": 3661,
      "rael": 3662,
      "Ġderivados": 3663,
      "Ġaquellas": 3664,
      "ĠdesempeÃ±": 3665,
      "ĠIndustr": 3666,
      "ĠPen": 3667,
      "ola": 3668,
      "ĠgÃ©nero": 3669,
      "ĠÃºnicamente": 3670,
      "Ġelev": 3671,
      "Ã¡tico": 3672,
      "Ġnombr": 3673,
      "Ġrequier": 3674,
      "Ġdem": 3675,
      "ivamente": 3676,
      "Ġtrib": 3677,
      "MENTE": 3678,
      "ĠPac": 3679,
      "Ġhubiera": 3680,
      "cidad": 3681,
      "Ġseguir": 3682,
      "ĠsoluciÃ³n": 3683,
      "Ġ<": 3684,
      "Ã©simo": 3685,
      "and": 3686,
      "Ġtan": 3687,
      "tamos": 3688,
      "culos": 3689,
      "Ġdestinados": 3690,
      "zada": 3691,
      "08": 3692,
      "obiernos": 3693,
      "Ġsufr": 3694,
      "Ġacto": 3695,
      "ĠÎ": 3696,
      "ĠinstalaciÃ³n": 3697,
      "Ġinteresados": 3698,
      "icaciones": 3699,
      "Ġconflictos": 3700,
      "identes": 3701,
      "DAD": 3702,
      "ables": 3703,
      "ĠProcedimiento": 3704,
      "Ãł": 3705,
      "Ġdecreto": 3706,
      "ĠAb": 3707,
      "Ġbases": 3708,
      "Ġsecre": 3709,
      "ĠnÂº": 3710,
      "Ã³sito": 3711,
      "Ġunos": 3712,
      "Ġfiguran": 3713,
      "Ġjue": 3714,
      "ĠSeÃ±or": 3715,
      "Ġimpuesto": 3716,
      "Ġ45": 3717,
      "ĠApl": 3718,
      "Ġmanifies": 3719,
      "Ġpatrimonio": 3720,
      "trices": 3721,
      "Ġanuales": 3722,
      "entras": 3723,
      "ĠcomisiÃ³n": 3724,
      "Ġeficaz": 3725,
      "61": 3726,
      "Ġhid": 3727,
      "ĠDIGITOÂº": 3728,
      "Ġhora": 3729,
      "ĠInformaciÃ³n": 3730,
      "gados": 3731,
      "Ġconocimientos": 3732,
      "Ġapoy": 3733,
      "Ġavan": 3734,
      "Ġdej": 3735,
      "Ġofer": 3736,
      "ĠFeder": 3737,
      "ĠpreparaciÃ³n": 3738,
      "TAN": 3739,
      "31": 3740,
      "Ġbaja": 3741,
      "Ġconvocatoria": 3742,
      "Ġfacilit": 3743,
      "ĠLE": 3744,
      "47": 3745,
      "Ġleyes": 3746,
      "ĠMi": 3747,
      "Ġregional": 3748,
      "ĠtÃ©cnicos": 3749,
      "breza": 3750,
      "Ġobservaciones": 3751,
      "dor": 3752,
      "Ġcuotas": 3753,
      "Ġcomerciales": 3754,
      "ĠconservaciÃ³n": 3755,
      "95": 3756,
      "ĠacompaÃ±": 3757,
      "Ġterrorismo": 3758,
      "Ġpac": 3759,
      "Ġantecedentes": 3760,
      "Ġponer": 3761,
      "Ġjurisdic": 3762,
      "Ġsanciones": 3763,
      "Ġprocedentes": 3764,
      "quil": 3765,
      "culaciÃ³n": 3766,
      "Ġperjuicios": 3767,
      "ĠsupervisiÃ³n": 3768,
      "ĠAÃ±adido": 3769,
      "ĠDIC": 3770,
      "BLE": 3771,
      "ĠaquÃ©l": 3772,
      "ĠMer": 3773,
      "Ġdebate": 3774,
      "Ġampar": 3775,
      "Ġorganismo": 3776,
      "Ġcausas": 3777,
      "Ġhacia": 3778,
      "ientos": 3779,
      "Ġ36": 3780,
      "Ġinicial": 3781,
      "Ġdemo": 3782,
      "Ġalgunas": 3783,
      "Ġsuperficie": 3784,
      "ip": 3785,
      "ĠÃºnica": 3786,
      "ÃŃci": 3787,
      "ĠSistema": 3788,
      "tÃ¡n": 3789,
      "Ġella": 3790,
      "ĠagrÃŃcol": 3791,
      "Ġllam": 3792,
      "enso": 3793,
      "Ġconsiguiente": 3794,
      "Ġcarga": 3795,
      "ĠNue": 3796,
      "alizaciÃ³n": 3797,
      "Ġencon": 3798,
      "Ġmencionado": 3799,
      "ĠAU": 3800,
      "ĠliquidaciÃ³n": 3801,
      "Ġdesta": 3802,
      "Ġmenores": 3803,
      "Ġutilizar": 3804,
      "dÃŃa": 3805,
      "Ġsolicitar": 3806,
      "ĠmÃ©todos": 3807,
      "Ġlegales": 3808,
      "reas": 3809,
      "Ġindica": 3810,
      "Ġ55": 3811,
      "Ġcostes": 3812,
      "Ġanteriormente": 3813,
      "Ġpesca": 3814,
      "inar": 3815,
      "ĠTributaria": 3816,
      "Ġindividual": 3817,
      "Ġciento": 3818,
      "96": 3819,
      "Ġconse": 3820,
      "Ġalcance": 3821,
      "ĠimportaciÃ³n": 3822,
      "Ġpron": 3823,
      "Ġsentencia": 3824,
      "SION": 3825,
      "Ġselec": 3826,
      "Ġfran": 3827,
      "Ġterritorial": 3828,
      "inos": 3829,
      "turo": 3830,
      "ĠUr": 3831,
      "Ġbeneficios": 3832,
      "ĠcategorÃŃas": 3833,
      "ĠHacienda": 3834,
      "hesiÃ³n": 3835,
      "Ġabor": 3836,
      "ĠRepres": 3837,
      "Ġresto": 3838,
      "ĠperÃŃodos": 3839,
      "ĠARTIC": 3840,
      "Ġpeso": 3841,
      "2008": 3842,
      "Ġ37": 3843,
      "Ġcambios": 3844,
      "Ġsujeto": 3845,
      "ĠposiciÃ³n": 3846,
      "2009": 3847,
      "03": 3848,
      "DEN": 3849,
      "JO": 3850,
      "Ġrem": 3851,
      "edores": 3852,
      "Ġproblema": 3853,
      "Ġadecuada": 3854,
      "ĠlÃŃmites": 3855,
      "Ġimportantes": 3856,
      "vech": 3857,
      "Ġoficiales": 3858,
      "SO": 3859,
      "Ġpobreza": 3860,
      "Ġdedic": 3861,
      "exto": 3862,
      "Ġparticipar": 3863,
      "Ġentrega": 3864,
      "Ġindustria": 3865,
      "ire": 3866,
      "Ġindependencia": 3867,
      "Ġposibles": 3868,
      "ĠÂ¿": 3869,
      "ĠProfes": 3870,
      "Ġdin": 3871,
      "Ġotorg": 3872,
      "ĠÃ©l": 3873,
      "ĠCAPÃįTULO": 3874,
      "Ġaccidente": 3875,
      "Ġmunicipal": 3876,
      "Ġcorresponda": 3877,
      "irma": 3878,
      "Ġsur": 3879,
      "Ġarren": 3880,
      "Ġ48": 3881,
      "Ġasimismo": 3882,
      "Ġsujetos": 3883,
      "Ġ32": 3884,
      "Ġimpa": 3885,
      "lio": 3886,
      "ĠInforme": 3887,
      "Ġalmacen": 3888,
      "ĠMil": 3889,
      "able": 3890,
      "Ġrecomend": 3891,
      "Ġactivos": 3892,
      "Ġprom": 3893,
      "Ġreforma": 3894,
      "Ġofrec": 3895,
      "atorio": 3896,
      "Ġdistribu": 3897,
      "Ġfinanciero": 3898,
      "up": 3899,
      "ump": 3900,
      "Ġvarias": 3901,
      "ies": 3902,
      "dido": 3903,
      "ĠintegraciÃ³n": 3904,
      "42": 3905,
      "Ġ1994": 3906,
      "Ġdepen": 3907,
      "Ġacerca": 3908,
      "Ġporcentaje": 3909,
      "ĠcientÃŃfic": 3910,
      "drÃ¡n": 3911,
      "Ġvigilancia": 3912,
      "Ġquien": 3913,
      "Ġentender": 3914,
      "urso": 3915,
      "Ġsectores": 3916,
      "Ġtransc": 3917,
      "arma": 3918,
      "Ġrealizado": 3919,
      "Ġbar": 3920,
      "ĠOper": 3921,
      "ĠfabricaciÃ³n": 3922,
      "ĠenseÃ±anza": 3923,
      "tativo": 3924,
      "Ġgrav": 3925,
      "Ġdebido": 3926,
      "ĠaÃºn": 3927,
      "Ġfuturo": 3928,
      "end": 3929,
      "Ġcontribuy": 3930,
      "Ġ2011": 3931,
      "Ġ43": 3932,
      "Ġincluir": 3933,
      "Ġdev": 3934,
      "Ġrespecta": 3935,
      "Ġrei": 3936,
      "Ġinfraestruc": 3937,
      "vaciÃ³n": 3938,
      "Ġcontar": 3939,
      "Ġconex": 3940,
      "ĠAutor": 3941,
      "ĠCOMUN": 3942,
      "bra": 3943,
      "Ġasuntos": 3944,
      "oma": 3945,
      "Ġcoordin": 3946,
      "ĠcÃ¡l": 3947,
      "Ġcolectivo": 3948,
      "ĠSEG": 3949,
      "Ġalcanzar": 3950,
      "ĠUniversidad": 3951,
      "ĠLi": 3952,
      "Ġiniciativa": 3953,
      "Ġcoste": 3954,
      "Ġambos": 3955,
      "Ġagentes": 3956,
      "Ġaguas": 3957,
      "Ġtotalidad": 3958,
      "Ġpreten": 3959,
      "Ġimportaciones": 3960,
      "Ġasegurar": 3961,
      "Ġexpresa": 3962,
      "Ġhabitual": 3963,
      "ĠexportaciÃ³n": 3964,
      "Ġalguno": 3965,
      "ĠexenciÃ³n": 3966,
      "Ġcoleg": 3967,
      "ĠPRESENTE": 3968,
      "Ġdismin": 3969,
      "Ġexaminar": 3970,
      "iamente": 3971,
      "GC": 3972,
      "Ġinversiones": 3973,
      "Ġdomin": 3974,
      "Ġcontrario": 3975,
      "Ġfavora": 3976,
      "IB": 3977,
      "xim": 3978,
      "ĠCooper": 3979,
      "ificar": 3980,
      "Ġher": 3981,
      "Ġinmue": 3982,
      "Ġdeven": 3983,
      "Ġfinancieras": 3984,
      "Ġocu": 3985,
      "Ġconsultas": 3986,
      "Ġacon": 3987,
      "ĠDocum": 3988,
      "Ġcometi": 3989,
      "ĠEconÃ³mico": 3990,
      "ĠCapÃŃtulo": 3991,
      "cionamiento": 3992,
      "Ġaliment": 3993,
      "ĠsuspensiÃ³n": 3994,
      "ĠidentificaciÃ³n": 3995,
      "Ġmodifica": 3996,
      "Ġresiduos": 3997,
      "Ġdeterminado": 3998,
      "rendi": 3999,
      "ĠAmbi": 4000,
      "Ġalta": 4001,
      "Ġregula": 4002,
      "Ġestablecida": 4003,
      "TUR": 4004,
      "ĠRo": 4005,
      "Ġexiste": 4006,
      "anas": 4007,
      "clo": 4008,
      "rÃ¡n": 4009,
      "tamiento": 4010,
      "ficul": 4011,
      "Ġefectiva": 4012,
      "Ġaprovech": 4013,
      "Ġextre": 4014,
      "VEN": 4015,
      "Ġaprueba": 4016,
      "dice": 4017,
      "Ġconsta": 4018,
      "Ġ46": 4019,
      "Ġincluida": 4020,
      "gÃ¼": 4021,
      "Ġdebidamente": 4022,
      "Ġapre": 4023,
      "asas": 4024,
      "Ġadministrativas": 4025,
      "ĠAsÃŃ": 4026,
      "Ġmanifes": 4027,
      "Ã©ndose": 4028,
      "Ġtor": 4029,
      "Ġadicionales": 4030,
      "ĠAG": 4031,
      "Ġarti": 4032,
      "OE": 4033,
      "uncia": 4034,
      "ĠPÃºblica": 4035,
      "Ġfabric": 4036,
      "orro": 4037,
      "Ġfueron": 4038,
      "ĠTrans": 4039,
      "Ġsancion": 4040,
      "ME": 4041,
      "ĠespecÃŃfica": 4042,
      "Ġproducido": 4043,
      "36": 4044,
      "ĠmÃ¡qu": 4045,
      "Ġaus": 4046,
      "Ġreca": 4047,
      "ĠRenta": 4048,
      "Ġexperiencia": 4049,
      "Ġescri": 4050,
      "Ġvul": 4051,
      "Ġconsecuencias": 4052,
      "Ġhij": 4053,
      "1998": 4054,
      "Ġpermiti": 4055,
      "ĠINS": 4056,
      "Ġrecuper": 4057,
      "habilitaciÃ³n": 4058,
      "Ġvolumen": 4059,
      "Ġlaborales": 4060,
      "Ġespacio": 4061,
      "Ġhubier": 4062,
      "72": 4063,
      "Ġsostenible": 4064,
      "Ġincumplimiento": 4065,
      "dencias": 4066,
      "Ġconcep": 4067,
      "Ġdenomin": 4068,
      "Ġprestar": 4069,
      "ben": 4070,
      "ĠComercio": 4071,
      "tora": 4072,
      "ĠEntidad": 4073,
      "Ġdificul": 4074,
      "Ġcomunicaciones": 4075,
      "torios": 4076,
      ".Â»": 4077,
      "Ġdefinitiva": 4078,
      "trimonio": 4079,
      "teras": 4080,
      "ĠTexto": 4081,
      "inal": 4082,
      "ulas": 4083,
      "FIC": 4084,
      "ĠseÃ±ala": 4085,
      "Ġayud": 4086,
      "ĠGestiÃ³n": 4087,
      "Ġfundamentales": 4088,
      "Ġdeclaraciones": 4089,
      "Ġresidencia": 4090,
      "ĠRel": 4091,
      "ĠaÃ©": 4092,
      "Ġtransitoria": 4093,
      "ĠTa": 4094,
      "Ġing": 4095,
      "urrido": 4096,
      "Ġincluye": 4097,
      "ĠCi": 4098,
      "entado": 4099,
      "Ġenfermedad": 4100,
      "ĠentrarÃ¡": 4101,
      "IDADES": 4102,
      "ĠAdministrativo": 4103,
      "ĠFormaciÃ³n": 4104,
      "Ġmientras": 4105,
      "Ġinterior": 4106,
      "ĠMÃ©": 4107,
      "Ġsuministr": 4108,
      "Ġinstrumento": 4109,
      "Ġjuicio": 4110,
      "Ġgubernamentales": 4111,
      "culares": 4112,
      "Ġenvi": 4113,
      "Ġdiversos": 4114,
      "Ġapropi": 4115,
      "Ġimpres": 4116,
      "iendas": 4117,
      "izados": 4118,
      "TAL": 4119,
      "CL": 4120,
      "ĠLeg": 4121,
      "Ġpermitir": 4122,
      "Ġestatal": 4123,
      "Ġglobal": 4124,
      "BoletÃŃn": 4125,
      "Ġdiversas": 4126,
      "Ġestatu": 4127,
      "Ġexpuesto": 4128,
      "ĠCOMI": 4129,
      "trol": 4130,
      "Ġguar": 4131,
      "ADAS": 4132,
      "Ġpun": 4133,
      "Ġproductores": 4134,
      "eraciÃ³n": 4135,
      "Ġsustancias": 4136,
      "Ġincluido": 4137,
      "Ġentien": 4138,
      "Ġnum": 4139,
      "rio": 4140,
      "Ġlen": 4141,
      "Ġequivalente": 4142,
      "Ġ1993": 4143,
      "Ġdestina": 4144,
      "Ġdemoc": 4145,
      "áĥ": 4146,
      "TC": 4147,
      "cionalidad": 4148,
      "Ġimpu": 4149,
      "Ġeleg": 4150,
      "ĠPersonas": 4151,
      "Ġmotivo": 4152,
      "stitu": 4153,
      "Ġrepro": 4154,
      "Ġproceda": 4155,
      "Ġtel": 4156,
      "Ġambiental": 4157,
      "EL": 4158,
      "Ġprecepto": 4159,
      "ficiencia": 4160,
      "ficientes": 4161,
      "Ad": 4162,
      "Ġnucleares": 4163,
      "Ġtex": 4164,
      "ĠDem": 4165,
      "Ġacces": 4166,
      "ĠinspecciÃ³n": 4167,
      "ĠvÃŃctimas": 4168,
      "Ġdomicilio": 4169,
      "ĠCOR": 4170,
      "ĠSuperior": 4171,
      "ÃŃgen": 4172,
      "tim": 4173,
      "Ã¡ticos": 4174,
      "04": 4175,
      "Ġcuadro": 4176,
      "osiciones": 4177,
      "ĠEjecu": 4178,
      "hibi": 4179,
      "ĠMe": 4180,
      "Ġlle": 4181,
      "ases": 4182,
      "59": 4183,
      "recu": 4184,
      "Ġprac": 4185,
      "56": 4186,
      "Ġvuln": 4187,
      "ĠprÃ³x": 4188,
      "ĠTRA": 4189,
      "ursos": 4190,
      "Ġquienes": 4191,
      "Ġsolicitante": 4192,
      "Ġaux": 4193,
      "Ġlicencia": 4194,
      "ĠquÃ©": 4195,
      "Ġalto": 4196,
      "Ġiniciativas": 4197,
      "Ġempresarial": 4198,
      "IP": 4199,
      "Ġdelito": 4200,
      "Ġprivado": 4201,
      "ĠentenderÃ¡": 4202,
      "ĠARTICULO": 4203,
      "Ġconcer": 4204,
      "Ġtercera": 4205,
      "Ġ34": 4206,
      "graf": 4207,
      "74": 4208,
      "Ġsindic": 4209,
      "Ġconcur": 4210,
      "gn": 4211,
      "table": 4212,
      "ĠAutÃ³nomas": 4213,
      "Ġcorri": 4214,
      "Ã¡tica": 4215,
      "cla": 4216,
      "Ġsuminis": 4217,
      "Ġconflicto": 4218,
      "Ġtasa": 4219,
      "Ġcalcul": 4220,
      "ĠTi": 4221,
      "Ġ=": 4222,
      "ĠdÃ©": 4223,
      "Ġexpresamente": 4224,
      "Ġconsumid": 4225,
      "ĠplanificaciÃ³n": 4226,
      "ualmente": 4227,
      "Ã©m": 4228,
      "Ġnormal": 4229,
      "Ġcomprome": 4230,
      "Ġenmi": 4231,
      "Ġconsiderar": 4232,
      "ĠUrban": 4233,
      "ĠAcciÃ³n": 4234,
      "ONO": 4235,
      "Ġsuf": 4236,
      "diciales": 4237,
      "ĠobtenciÃ³n": 4238,
      "Ġreper": 4239,
      "gÃ¼edad": 4240,
      "ĠopiniÃ³n": 4241,
      "Ġon": 4242,
      "Ġcomunes": 4243,
      "Ġedifici": 4244,
      "Ġemerg": 4245,
      "esa": 4246,
      "ĠFiscal": 4247,
      "ĠTen": 4248,
      "op": 4249,
      "cipl": 4250,
      "Ġmal": 4251,
      "Ar": 4252,
      "Ġjusticia": 4253,
      "Ġpala": 4254,
      "Ġcomprende": 4255,
      "Ġnuestro": 4256,
      "Ġensayo": 4257,
      "cioso": 4258,
      "ĠquÃŃm": 4259,
      "Ġsalario": 4260,
      "Ġjunto": 4261,
      "Ġmercados": 4262,
      "ĠÃºltimos": 4263,
      "Ġasesor": 4264,
      "71": 4265,
      "Ġii": 4266,
      "Ġpreciso": 4267,
      "Ġentor": 4268,
      "06": 4269,
      "ĠexcepciÃ³n": 4270,
      "Ġformulada": 4271,
      "ĠfÃŃsica": 4272,
      "88": 4273,
      "ĠcomposiciÃ³n": 4274,
      "ĠAS": 4275,
      "Ġescol": 4276,
      "39": 4277,
      "ĠSol": 4278,
      "Ġcomunitario": 4279,
      "Ġfom": 4280,
      "Ġimponible": 4281,
      "endas": 4282,
      "lig": 4283,
      "ĠPRESID": 4284,
      "Ġads": 4285,
      "Ġdesarrollar": 4286,
      "Ġseguro": 4287,
      "Ġcomunidades": 4288,
      "ĠcompaÃ±": 4289,
      "Ġactivo": 4290,
      "venir": 4291,
      "ĠespecÃŃficos": 4292,
      "Ġgobiernos": 4293,
      "Ġincremento": 4294,
      "Ġcarre": 4295,
      "Ġsuministro": 4296,
      "Ġ2012": 4297,
      "Ġexpertos": 4298,
      "Ġ1992": 4299,
      "Ġnuestra": 4300,
      "Ġcriterio": 4301,
      "Ġexaminado": 4302,
      "metros": 4303,
      "ĠEE": 4304,
      "Ġadoptadas": 4305,
      "ĠON": 4306,
      "Ġimpar": 4307,
      "ĠSociedades": 4308,
      "Ġadecuado": 4309,
      "Ġmodificado": 4310,
      "Ġadjudic": 4311,
      "Ãģ": 4312,
      "Ġasis": 4313,
      "Ġfamilia": 4314,
      "Ġejercer": 4315,
      "Ġsens": 4316,
      "ciente": 4317,
      "ĠPolÃŃtica": 4318,
      "IDO": 4319,
      "ĠpÃ¡gina": 4320,
      "ĠBanco": 4321,
      "Ġconden": 4322,
      "tru": 4323,
      "ĠpresentÃ³": 4324,
      "2010": 4325,
      "Ġclasific": 4326,
      "fric": 4327,
      "biendo": 4328,
      "Ġexter": 4329,
      "ĠSala": 4330,
      "Ã¡fico": 4331,
      "Ġviviendas": 4332,
      "ĠinscripciÃ³n": 4333,
      "Ġcuota": 4334,
      "Ġpagos": 4335,
      "gel": 4336,
      "Ġfase": 4337,
      "ĠmÃŃnima": 4338,
      "Ġrespeto": 4339,
      "Ġsustan": 4340,
      "ĠPaÃŃs": 4341,
      "all": 4342,
      "UM": 4343,
      "ĠCam": 4344,
      "ĠgarantÃŃas": 4345,
      "ĠbÃ¡sica": 4346,
      "Ġterreno": 4347,
      "dio": 4348,
      "Ġutilizados": 4349,
      "Ġdemos": 4350,
      "Ġempleados": 4351,
      "Ġpresencia": 4352,
      "GO": 4353,
      "didas": 4354,
      "ĠdaÃ±o": 4355,
      "Ġprovin": 4356,
      "ĠJurÃŃdico": 4357,
      "ĠEconomÃŃa": 4358,
      "ĠFÃŃs": 4359,
      "ka": 4360,
      "idez": 4361,
      "ĠcapacitaciÃ³n": 4362,
      "TRA": 4363,
      "ĠcompensaciÃ³n": 4364,
      "oce": 4365,
      "32": 4366,
      "âĢ¦": 4367,
      "Ġgan": 4368,
      "ge": 4369,
      "Ġsimilares": 4370,
      "osp": 4371,
      "ĠRela": 4372,
      "Ġrealiza": 4373,
      "terial": 4374,
      "Ġpuesta": 4375,
      "usti": 4376,
      "ĠBru": 4377,
      "ĠserÃŃa": 4378,
      "Ġdefensa": 4379,
      "Ġreno": 4380,
      "34": 4381,
      "inta": 4382,
      "Ãºmero": 4383,
      "izada": 4384,
      "Ġadministrativos": 4385,
      "Ġreglamento": 4386,
      "ĠDurante": 4387,
      "Ġ;": 4388,
      "ĠTÃ©cnico": 4389,
      "ĠtecnologÃŃa": 4390,
      "Ġrenta": 4391,
      "CN": 4392,
      "Ġexclusivamente": 4393,
      "Ġcentral": 4394,
      "Ġexcepto": 4395,
      "Ġ85": 4396,
      "Ġmor": 4397,
      "Ġestrategia": 4398,
      "arme": 4399,
      "GAN": 4400,
      "Ġ80": 4401,
      "ĠTerritorial": 4402,
      "Ġconci": 4403,
      "ECH": 4404,
      "Ġpropias": 4405,
      "Ġ49": 4406,
      "dicos": 4407,
      "ologÃŃas": 4408,
      "Ġinterno": 4409,
      "Ġcrear": 4410,
      "2013": 4411,
      "tÃ©g": 4412,
      "illa": 4413,
      "Ġinicio": 4414,
      "ĠprÃ©s": 4415,
      "Ġfundamental": 4416,
      "ĠNueva": 4417,
      "cionalmente": 4418,
      "Ġconsegu": 4419,
      "ĠtrÃ¡fico": 4420,
      "ivas": 4421,
      "yendo": 4422,
      "ĠbÃ¡sicos": 4423,
      "ĠInv": 4424,
      "ĠObje": 4425,
      "Ġefectuar": 4426,
      "ĠCr": 4427,
      "ĠSent": 4428,
      "artÃŃculo": 4429,
      "ticamente": 4430,
      "Ġvigencia": 4431,
      "Ġpermiso": 4432,
      "Ġacu": 4433,
      "ĠinterpretaciÃ³n": 4434,
      "Ġconcreto": 4435,
      "Ġconceptos": 4436,
      "Ġcompromisos": 4437,
      "Ġfomento": 4438,
      "ĠCAS": 4439,
      "Ġcomponentes": 4440,
      "Ġmuchos": 4441,
      "Ġdu": 4442,
      "ĠUNE": 4443,
      "ĠdefiniciÃ³n": 4444,
      "uela": 4445,
      "ĠGener": 4446,
      "ĠRepresent": 4447,
      "NUD": 4448,
      "ĠNivel": 4449,
      "Ġplazos": 4450,
      "Ġretir": 4451,
      "ĠEC": 4452,
      "ĠOri": 4453,
      "Ġaumentar": 4454,
      "Ġ42": 4455,
      "iciÃ³n": 4456,
      "Ġat": 4457,
      "trar": 4458,
      "edir": 4459,
      "Ġ..": 4460,
      "Ġdiferencia": 4461,
      "Ġmuer": 4462,
      "ĠestarÃ¡n": 4463,
      "Ġadministraciones": 4464,
      "Ġuni": 4465,
      "92": 4466,
      "Ġlado": 4467,
      "Ġhomolog": 4468,
      "Ġpenal": 4469,
      "cionar": 4470,
      "Ġplenamente": 4471,
      "Ġconting": 4472,
      "Ġreduci": 4473,
      "Ġlec": 4474,
      "Ġpregun": 4475,
      "ĠCarta": 4476,
      "IT": 4477,
      "Ġrev": 4478,
      "ĠmÃ©todo": 4479,
      "gaciÃ³n": 4480,
      "PER": 4481,
      "Ġpi": 4482,
      "ĠDef": 4483,
      "Ã¡p": 4484,
      "Ġmencionados": 4485,
      "arca": 4486,
      "log": 4487,
      "Ġentiende": 4488,
      "Ġpers": 4489,
      "ĠUnido": 4490,
      "Ġcandida": 4491,
      "ĠcÃ¡lculo": 4492,
      "Ġpersonales": 4493,
      "Ġpermite": 4494,
      "PON": 4495,
      "Ġ1990": 4496,
      "Ġamparo": 4497,
      "Ġenfo": 4498,
      "Ġtoma": 4499,
      "62": 4500,
      "Ġfrecu": 4501,
      "ĠEspaÃ±": 4502,
      "Ġimpacto": 4503,
      "Ġfron": 4504,
      "ĠCuer": 4505,
      "Ã¡us": 4506,
      "ĠGran": 4507,
      "Ġ99": 4508,
      "ade": 4509,
      "ego": 4510,
      "ĠeconomÃŃa": 4511,
      "Ġrecibir": 4512,
      "ema": 4513,
      "Ġextin": 4514,
      "Ġbuques": 4515,
      "Ġbo": 4516,
      "Ġmencionada": 4517,
      "tativa": 4518,
      "ĠTÃŃtulo": 4519,
      "Ġdirectrices": 4520,
      "Ġrefug": 4521,
      "Ġciclo": 4522,
      "Ġmotiv": 4523,
      "Ġ44": 4524,
      "Ġelemento": 4525,
      "Ġ2013": 4526,
      "ĠProvin": 4527,
      "Ġtenido": 4528,
      "caciÃ³n": 4529,
      "osa": 4530,
      "venes": 4531,
      "tral": 4532,
      "paÃ±a": 4533,
      "Ã³venes": 4534,
      "Ġreiter": 4535,
      "Ġresponsables": 4536,
      "Ġcrecimiento": 4537,
      "var": 4538,
      "Ġul": 4539,
      "Ġindustrial": 4540,
      "CIAL": 4541,
      "diendo": 4542,
      "ĠcirculaciÃ³n": 4543,
      "ĠrehabilitaciÃ³n": 4544,
      "ĠCAR": 4545,
      "Ġrur": 4546,
      "Ġtranspar": 4547,
      "Ġpeligr": 4548,
      "Ġfuerza": 4549,
      "Ġrealicen": 4550,
      "imas": 4551,
      "Ġtele": 4552,
      "ĠProyecto": 4553,
      "izaciones": 4554,
      "Ġrazona": 4555,
      "Ġacum": 4556,
      "Ġajus": 4557,
      "ww": 4558,
      "Ġrealizados": 4559,
      "iten": 4560,
      "Ġbis": 4561,
      "trado": 4562,
      "ale": 4563,
      "IOS": 4564,
      "Ġvacaciones": 4565,
      "emoria": 4566,
      "Ġasunto": 4567,
      "Ġflu": 4568,
      "Ġparticulares": 4569,
      "tencial": 4570,
      "85": 4571,
      "dalidades": 4572,
      "Ġrelig": 4573,
      "Ġfirma": 4574,
      "POR": 4575,
      "Ġrestric": 4576,
      "ĠcomercializaciÃ³n": 4577,
      "bur": 4578,
      "ĠPU": 4579,
      "ÃŃstico": 4580,
      "Ġcompeti": 4581,
      "eamiento": 4582,
      "Ġpuer": 4583,
      "ĠPresidencia": 4584,
      "Ġ41": 4585,
      "UP": 4586,
      "unales": 4587,
      "Ġrespectivamente": 4588,
      "Ġescala": 4589,
      "FEC": 4590,
      "ĠpÃ©rdida": 4591,
      "Ġfer": 4592,
      "edor": 4593,
      "Ġmovil": 4594,
      "Ġcomunitaria": 4595,
      "lex": 4596,
      "ĠPenal": 4597,
      "Ġalterna": 4598,
      "cus": 4599,
      "ĠÃ¡mbitos": 4600,
      "ĠIden": 4601,
      "Ġvel": 4602,
      "ĠPRESIDENTE": 4603,
      "Ġprove": 4604,
      "AB": 4605,
      "ĠtrÃ¡mite": 4606,
      "Ġparticipantes": 4607,
      "07": 4608,
      "selas": 4609,
      "Ġgesti": 4610,
      "adu": 4611,
      "Ġcumplan": 4612,
      "ĠampliaciÃ³n": 4613,
      "Ãī": 4614,
      "ĠPA": 4615,
      "ebra": 4616,
      "Ġunas": 4617,
      "ĠjurÃŃdicas": 4618,
      "Ġ58": 4619,
      "Ġsuma": 4620,
      "Ġinstrucciones": 4621,
      "ĠantigÃ¼edad": 4622,
      "ĠChina": 4623,
      "trÃ³": 4624,
      "Ġingreso": 4625,
      "Ġsupon": 4626,
      "jerÃŃa": 4627,
      "Ġdemanda": 4628,
      "Ġpractic": 4629,
      "Ġcontamin": 4630,
      "Ġperspec": 4631,
      "Ġcuer": 4632,
      "Ġtomar": 4633,
      "ĠMinistros": 4634,
      "Ġusos": 4635,
      "olÃ³gica": 4636,
      "Ġexterior": 4637,
      "agÃ©simo": 4638,
      "Ġrealizada": 4639,
      "Ġaduan": 4640,
      "ĠLegis": 4641,
      "Ġminor": 4642,
      "Ġasociados": 4643,
      "DUC": 4644,
      "izo": 4645,
      "Ġpresenta": 4646,
      "alizado": 4647,
      "ĠrealizarÃ¡": 4648,
      "ĠfÃ¡": 4649,
      "Ġesencial": 4650,
      "direc": 4651,
      "Ġciviles": 4652,
      "Ġhijos": 4653,
      "GA": 4654,
      "enio": 4655,
      "Ġhoy": 4656,
      "Ġrendimientos": 4657,
      "Ġkg": 4658,
      "Ġdeuda": 4659,
      "Ġpendi": 4660,
      "ĠBruselas": 4661,
      "ĠCOMO": 4662,
      "RETAR": 4663,
      "Ġextraordinarias": 4664,
      "Ġredes": 4665,
      "97": 4666,
      "Ġcontiene": 4667,
      "Ġestime": 4668,
      "Ġarrend": 4669,
      "ĠvÃ¡l": 4670,
      "Ġrendimiento": 4671,
      "ĠâĢ¦": 4672,
      "ĠpolicÃŃa": 4673,
      "ria": 4674,
      "Ġpalestin": 4675,
      "Ã©tica": 4676,
      "ĠjÃ³venes": 4677,
      "ĠMisiÃ³n": 4678,
      "Ġgeo": 4679,
      "ĠautonÃ³m": 4680,
      "Ġgarantiz": 4681,
      "ĠEURO": 4682,
      "Ġmedicam": 4683,
      "Ġrequisito": 4684,
      "Ġconvenios": 4685,
      "ĠefectÃº": 4686,
      "ĠPes": 4687,
      "ĠtÃŃtulos": 4688,
      "Ġpasivo": 4689,
      "rÃ¡tica": 4690,
      "ĠclasificaciÃ³n": 4691,
      "ĠOblig": 4692,
      "rÃ¡fic": 4693,
      "ĠSegÃºn": 4694,
      "Ġbru": 4695,
      "Ġ70": 4696,
      "ĠSegundo": 4697,
      "Ġenc": 4698,
      "Ġind": 4699,
      "Ġinscri": 4700,
      "Ġclase": 4701,
      "Ġgen": 4702,
      "Ġtransferencia": 4703,
      "Ã¡mar": 4704,
      "Ġmecanismo": 4705,
      "Ġcomplemento": 4706,
      "vent": 4707,
      "Ġtranspor": 4708,
      "Ã¤": 4709,
      "Ġdestinadas": 4710,
      "Ġentorno": 4711,
      "Ġsopor": 4712,
      "ĠfÃŃsicas": 4713,
      "In": 4714,
      "todo": 4715,
      "Ġbuen": 4716,
      "ĠGenerales": 4717,
      "2011": 4718,
      "blos": 4719,
      "Ġaudiencia": 4720,
      "MIENTO": 4721,
      "Ġcuan": 4722,
      "Ġdiez": 4723,
      "Ġmilitar": 4724,
      "94": 4725,
      "ĠdeducciÃ³n": 4726,
      "Ġgasto": 4727,
      "osas": 4728,
      "ĠGar": 4729,
      "ĠMO": 4730,
      "ĠinclusiÃ³n": 4731,
      "Ġfinales": 4732,
      "tres": 4733,
      "ICO": 4734,
      "Ġvein": 4735,
      "nes": 4736,
      "Ġpad": 4737,
      "Ġmod": 4738,
      "net": 4739,
      "erse": 4740,
      "1995": 4741,
      "Ġreglas": 4742,
      "ĠComÃºn": 4743,
      "Ġcalific": 4744,
      "ĠTER": 4745,
      "Ġintercambio": 4746,
      "Ġlimpi": 4747,
      "ĠpÃ¡rrafos": 4748,
      "Ġactualmente": 4749,
      "Ġimpug": 4750,
      "oto": 4751,
      "Ġusuarios": 4752,
      "Ġincon": 4753,
      "RAN": 4754,
      "Ġpercibir": 4755,
      "Ġregiones": 4756,
      "ĠharÃ¡": 4757,
      "Ġoficio": 4758,
      "ĠAmÃ©rica": 4759,
      "FICI": 4760,
      "Ġfactores": 4761,
      "Ġagra": 4762,
      "ĠNormas": 4763,
      "ĠCum": 4764,
      "ĠFederaciÃ³n": 4765,
      "Ġgobierno": 4766,
      "Ġfamiliar": 4767,
      "umi": 4768,
      "ĠespecÃŃfico": 4769,
      "ĠaportaciÃ³n": 4770,
      "errami": 4771,
      "ĠaÃ±ad": 4772,
      "Ġmutu": 4773,
      "BRE": 4774,
      "Ġmodalidades": 4775,
      "Ġcrisis": 4776,
      "Ġproducir": 4777,
      "ĠpÃ¡rr": 4778,
      "ĠCooperaciÃ³n": 4779,
      "Ġdelitos": 4780,
      "Ġdiscapacidad": 4781,
      "idar": 4782,
      "ĠJuz": 4783,
      "Ġcosas": 4784,
      "ĠObserv": 4785,
      "Ġcla": 4786,
      "ĠMal": 4787,
      "Ġconsign": 4788,
      "medi": 4789,
      "Ġalegaciones": 4790,
      "turaciÃ³n": 4791,
      "Ġterrenos": 4792,
      "vÃ©ase": 4793,
      "Ġsocios": 4794,
      "vÃŃa": 4795,
      "ĠdiÃ¡logo": 4796,
      "ĠmÃ³d": 4797,
      "ĠAmbiente": 4798,
      "67": 4799,
      "erra": 4800,
      "ĠOB": 4801,
      "TACION": 4802,
      "ĠColeg": 4803,
      "Ġminis": 4804,
      "ĠPacto": 4805,
      "Ġtitulares": 4806,
      "ĠINTER": 4807,
      "ĠTerc": 4808,
      "Ġ51": 4809,
      "Ġpasa": 4810,
      "Ġambas": 4811,
      "ĠÃ©stos": 4812,
      "Ġ1991": 4813,
      "CH": 4814,
      "2012": 4815,
      "Ġaz": 4816,
      "ete": 4817,
      "Ġhemos": 4818,
      "Ġcertificados": 4819,
      "ĠTrabaj": 4820,
      "Ġadministr": 4821,
      "TIN": 4822,
      "ĠemitiÃ³": 4823,
      "Ġoficinas": 4824,
      "itud": 4825,
      "Ġadoptado": 4826,
      "hibiciÃ³n": 4827,
      "Ġpros": 4828,
      "1997": 4829,
      "ĠpreocupaciÃ³n": 4830,
      "Ġindependiente": 4831,
      "57": 4832,
      "ĠGr": 4833,
      "ĠNÂº": 4834,
      "Ġintens": 4835,
      "onel": 4836,
      "lante": 4837,
      "ĠREAL": 4838,
      "Ġsubsidi": 4839,
      "uelas": 4840,
      "Ġrefor": 4841,
      "Ġpermita": 4842,
      "ĠApro": 4843,
      "ĠPrincip": 4844,
      "Ġabsol": 4845,
      "ĠmÃ¡quinas": 4846,
      "Ġmedia": 4847,
      "ĠSud": 4848,
      "ĠInvestig": 4849,
      "Ġmarcha": 4850,
      "titud": 4851,
      "ĠIMP": 4852,
      "ĠEUROPE": 4853,
      "ĠDiario": 4854,
      "ĠProtecciÃ³n": 4855,
      "bili": 4856,
      "Ġsuperiores": 4857,
      "ĠestratÃ©g": 4858,
      "Ġprevent": 4859,
      "Ġmodificar": 4860,
      "Ġdeten": 4861,
      "Ġ000": 4862,
      "âĢĿ.": 4863,
      "Ġproteger": 4864,
      "lÃ©s": 4865,
      "ĠSentencia": 4866,
      "Ġadj": 4867,
      "Ã©u": 4868,
      "estre": 4869,
      "SA": 4870,
      "Ġcontroles": 4871,
      "Ġresuel": 4872,
      "eta": 4873,
      "Ġtradi": 4874,
      "uz": 4875,
      "ĠseÃ±or": 4876,
      "ĠconclusiÃ³n": 4877,
      "TRO": 4878,
      "Ġprof": 4879,
      "0001": 4880,
      "ĠDIR": 4881,
      "iaciÃ³n": 4882,
      "imientos": 4883,
      "itares": 4884,
      "Ġsometer": 4885,
      "ĠcÃ³digo": 4886,
      "tensiÃ³n": 4887,
      "Ġrecom": 4888,
      "Ġproceder": 4889,
      "ductos": 4890,
      "ĠIsrael": 4891,
      "Ã©pti": 4892,
      "Ġgo": 4893,
      "ĠCONSE": 4894,
      "ĠSA": 4895,
      "Ġtemas": 4896,
      "ĠID": 4897,
      "Ġconjun": 4898,
      "Ġcompleta": 4899,
      "ENTES": 4900,
      "91": 4901,
      "ĠdifusiÃ³n": 4902,
      "Ġ56": 4903,
      "Ġ91": 4904,
      "Ġnegociaciones": 4905,
      "ell": 4906,
      "amen": 4907,
      "ĠREGLA": 4908,
      "Ġbl": 4909,
      "Ġfuentes": 4910,
      "anÃŃa": 4911,
      "Ġpode": 4912,
      "ĠAlim": 4913,
      "Ġradio": 4914,
      "ĠRa": 4915,
      "Ġestablecimientos": 4916,
      "ĠINF": 4917,
      "orr": 4918,
      "Ġvigentes": 4919,
      "ĠSECRETAR": 4920,
      "41": 4921,
      "ĠConten": 4922,
      "ĠEntre": 4923,
      "ĠvotaciÃ³n": 4924,
      "Ġtari": 4925,
      "ĠevoluciÃ³n": 4926,
      "Ġafectado": 4927,
      "ĠocupaciÃ³n": 4928,
      "Ġincom": 4929,
      "ianza": 4930,
      "ĠFÃŃsicas": 4931,
      "Ġarmon": 4932,
      "inci": 4933,
      "fas": 4934,
      "ENCIA": 4935,
      "Ġproh": 4936,
      "ĠTel": 4937,
      "Ġreguladora": 4938,
      "Ġobligatorio": 4939,
      "Ġparece": 4940,
      "ĠFinanci": 4941,
      "grÃ¡fica": 4942,
      "MINISTR": 4943,
      "cur": 4944,
      "poco": 4945,
      "Ġcompor": 4946,
      "Ġfarma": 4947,
      "pÃŃ": 4948,
      "ĠSUS": 4949,
      "ĠniÃ±o": 4950,
      "Ġconclusiones": 4951,
      "Ġmm": 4952,
      "Ġ01": 4953,
      "adÃ©m": 4954,
      "ĠemisiÃ³n": 4955,
      "ĠHecho": 4956,
      ".âĢĵ": 4957,
      "Ġjubil": 4958,
      "Ġhombres": 4959,
      "torÃŃa": 4960,
      "ende": 4961,
      "ĠhabrÃ¡": 4962,
      "Ġ47": 4963,
      "Ġtraslado": 4964,
      "ionado": 4965,
      "Ġfaltas": 4966,
      "itat": 4967,
      "Ġcombusti": 4968,
      "Ġbeneficiarios": 4969,
      "Ġlegalmente": 4970,
      "Ġasociaciones": 4971,
      "Ġps": 4972,
      "DOP": 4973,
      "Ġretribuciones": 4974,
      "Ġdisponible": 4975,
      "Ġinfracciones": 4976,
      "Ġpose": 4977,
      "ĠdeberÃŃan": 4978,
      "IAS": 4979,
      "ĠBOE": 4980,
      "ĠadaptaciÃ³n": 4981,
      "Ġ52": 4982,
      "Ġid": 4983,
      "Ġregular": 4984,
      "ĠIgu": 4985,
      "Ġarbi": 4986,
      "Ġ2014": 4987,
      "LAN": 4988,
      "ĠIra": 4989,
      "Ġformular": 4990,
      "Ġemisiones": 4991,
      "ĠColec": 4992,
      "Con": 4993,
      "]..": 4994,
      "ÃŃgenas": 4995,
      "ertura": 4996,
      "âĢĿ,": 4997,
      "ĠEsto": 4998,
      "ĠRepresentante": 4999,
      "ĠrÃ¡p": 5000,
      "Ġderivadas": 5001,
      "ĠEmpl": 5002,
      "Ġmuestra": 5003,
      "Ġtercero": 5004,
      "ospital": 5005,
      "BA": 5006,
      "Ġconv": 5007,
      "Ġch": 5008,
      "ĠREC": 5009,
      "Ġdiscipl": 5010,
      "Ġinmediatamente": 5011,
      "Ġjudiciales": 5012,
      "Ġmucho": 5013,
      "Ġsede": 5014,
      "Ġpueblos": 5015,
      "laterales": 5016,
      "ĠPu": 5017,
      "Ã¡ndo": 5018,
      "Ġcontribuciones": 5019,
      "Ġaproxim": 5020,
      "Ġencuentra": 5021,
      "Ġces": 5022,
      "ĠconsiderarÃ¡": 5023,
      "ĠadhesiÃ³n": 5024,
      "Ġestrategias": 5025,
      "Ġcubier": 5026,
      "ĠEstu": 5027,
      "37": 5028,
      "Ġsujetas": 5029,
      "ĠSociales": 5030,
      "ulos": 5031,
      "ĠSa": 5032,
      "Ġemergencia": 5033,
      "ĠSERV": 5034,
      "ĠEnerg": 5035,
      "Ġsexual": 5036,
      "Ġimplan": 5037,
      "Ġurg": 5038,
      "Ġconcentr": 5039,
      "ĠtecnologÃŃas": 5040,
      "ĠAudi": 5041,
      "Ġmov": 5042,
      "Ġx": 5043,
      "enom": 5044,
      "cito": 5045,
      "ĠDesde": 5046,
      "Ġconcurr": 5047,
      "Ġimpugn": 5048,
      "Ġconsiderarse": 5049,
      "ĠAsociaciÃ³n": 5050,
      "Ġdise": 5051,
      "Ġ75": 5052,
      "ĠTRAN": 5053,
      "ĠDemoc": 5054,
      "EXO": 5055,
      "Ġlib": 5056,
      "Ġpensiones": 5057,
      "Ġpleno": 5058,
      "Ġexige": 5059,
      "Ġrealidad": 5060,
      "ĠcalificaciÃ³n": 5061,
      "Ġfuncionario": 5062,
      "Ġdisponibles": 5063,
      "Ġfores": 5064,
      "ĠLegisla": 5065,
      "ĠrecepciÃ³n": 5066,
      "ĠFuer": 5067,
      "Ġinmuebles": 5068,
      "Ġresulte": 5069,
      "ĠTrabajadores": 5070,
      "Ġint": 5071,
      "egaciÃ³n": 5072,
      "Ġreclamaciones": 5073,
      "ĠEstas": 5074,
      "Ġmencionadas": 5075,
      "ĠpolÃŃticos": 5076,
      "Ġtratados": 5077,
      "ciendo": 5078,
      "ĠquedarÃ¡": 5079,
      "ĠilÃŃci": 5080,
      "Ġedific": 5081,
      "entario": 5082,
      "ĠtransformaciÃ³n": 5083,
      "Ġenum": 5084,
      "Ġpresentada": 5085,
      "gada": 5086,
      "Ġadelante": 5087,
      "Ġindirec": 5088,
      "TAD": 5089,
      "Ġproporcionar": 5090,
      "Ġoportunidades": 5091,
      "JE": 5092,
      "Ġcober": 5093,
      "Ġaer": 5094,
      "Ġinno": 5095,
      "tista": 5096,
      "Ġigualmente": 5097,
      "ĠEstos": 5098,
      "Ġextraordinario": 5099,
      "Ġrig": 5100,
      "Ġ57": 5101,
      "ĠcontribuciÃ³n": 5102,
      "dero": 5103,
      "ĠIraq": 5104,
      "Ġespecies": 5105,
      "Î±": 5106,
      "Ġ54": 5107,
      "ĠeliminaciÃ³n": 5108,
      "ĠTÃ©cnica": 5109,
      "Ġconstar": 5110,
      "Ġcontribuir": 5111,
      "ĠincorporaciÃ³n": 5112,
      "ĠDIREC": 5113,
      "ĠcelebraciÃ³n": 5114,
      "Ġconveniente": 5115,
      "Ġ53": 5116,
      "Ġcursos": 5117,
      "inaria": 5118,
      "Ġprefer": 5119,
      "ĠSupre": 5120,
      "ĠAustr": 5121,
      "ĠconstituciÃ³n": 5122,
      "TITU": 5123,
      "Ġgrandes": 5124,
      "ĠcertificaciÃ³n": 5125,
      "Ġdefec": 5126,
      "Ġfiscales": 5127,
      "wa": 5128,
      "Ġconstituyen": 5129,
      "Ġatender": 5130,
      "ique": 5131,
      "ĠnegociaciÃ³n": 5132,
      "Ã¡menes": 5133,
      "ĠVer": 5134,
      "Ġestabilidad": 5135,
      "ciÃ³": 5136,
      "Ġ--------------------------------------------------------------------": 5137,
      "54": 5138,
      "echas": 5139,
      "Add": 5140,
      "ĠRelaciones": 5141,
      "men": 5142,
      "ĠjurisdicciÃ³n": 5143,
      "mon": 5144,
      "ecen": 5145,
      "Ġlegislativo": 5146,
      "Î¿": 5147,
      "Ġentendi": 5148,
      "ulares": 5149,
      "Ġ08": 5150,
      "ĠUrbanismo": 5151,
      "dis": 5152,
      "Ġfuerzas": 5153,
      "Ġcub": 5154,
      "ĠFIN": 5155,
      "Ġlog": 5156,
      "UER": 5157,
      "Ġanterioridad": 5158,
      "Ġsolicita": 5159,
      "ĠreparaciÃ³n": 5160,
      "exos": 5161,
      "Ġ59": 5162,
      "Ġentregas": 5163,
      "Ġcompati": 5164,
      "via": 5165,
      "500": 5166,
      "Ġcopia": 5167,
      "ĠOtros": 5168,
      "ĠinfracciÃ³n": 5169,
      "Ġherrami": 5170,
      "ORMA": 5171,
      "ĠÃ¡rea": 5172,
      "ĠMedidas": 5173,
      "Ġcomprendido": 5174,
      "ĠDOGC": 5175,
      "Ġrecogida": 5176,
      "ĠexpresiÃ³n": 5177,
      "Ġpueblo": 5178,
      "DOS": 5179,
      "ancias": 5180,
      "mil": 5181,
      "ĠSant": 5182,
      "Ġrelev": 5183,
      "fil": 5184,
      "ĠresolverÃ¡": 5185,
      "Ġide": 5186,
      "misi": 5187,
      "Ġamplia": 5188,
      "ĠAlto": 5189,
      "ĠUNI": 5190,
      "Ġobtenido": 5191,
      "Ã³rm": 5192,
      "Ġcoinci": 5193,
      "Ġ080": 5194,
      "ĠselecciÃ³n": 5195,
      "Ġsocio": 5196,
      "ĠTar": 5197,
      "Ġpreviamente": 5198,
      "TIVO": 5199,
      "ÃŃmenes": 5200,
      "ĠTodos": 5201,
      "IDOS": 5202,
      "Ġje": 5203,
      "Ġlengua": 5204,
      "Ġalmacenamiento": 5205,
      "Ġ2015": 5206,
      "Ġdetall": 5207,
      "ĠAplicaciÃ³n": 5208,
      "Ġbuena": 5209,
      "Ġfirme": 5210,
      "Ġasesoramiento": 5211,
      "che": 5212,
      "Ġoficina": 5213,
      "Ġconfigur": 5214,
      "Ġsanitaria": 5215,
      "51": 5216,
      "ANDO": 5217,
      "Ġeta": 5218,
      "TIVA": 5219,
      "ĠdepÃ³sito": 5220,
      "Ġsometido": 5221,
      "ĠenseÃ±anzas": 5222,
      "Ġrecibido": 5223,
      "ĠVIH": 5224,
      "Ġpudieran": 5225,
      "Ġ62": 5226,
      "Ġvoto": 5227,
      "oro": 5228,
      "ĠAlem": 5229,
      "Ġenfoque": 5230,
      "64": 5231,
      "versiÃ³n": 5232,
      "ĠAf": 5233,
      "usia": 5234,
      "Ġcompu": 5235,
      "Ġcultural": 5236,
      "dental": 5237,
      "MAS": 5238,
      "Ġestaba": 5239,
      "ĠinglÃ©s": 5240,
      "Ġbal": 5241,
      "Ġtuvo": 5242,
      "tina": 5243,
      "enominaciÃ³n": 5244,
      "Ġprescri": 5245,
      "Ġalimentos": 5246,
      "Ġinteresadas": 5247,
      "oras": 5248,
      "Ġalg": 5249,
      "Ġexport": 5250,
      "87": 5251,
      "\">": 5252,
      "ĠaprobÃ³": 5253,
      "omun": 5254,
      "Ġseleccion": 5255,
      "Ġplena": 5256,
      "ĠpÃ©rdidas": 5257,
      "ĠNÃºmero": 5258,
      "igna": 5259,
      "ĠSociedad": 5260,
      "LAS": 5261,
      "acciÃ³n": 5262,
      "Ġpertinente": 5263,
      "ĠENTR": 5264,
      "TERIOR": 5265,
      "Ġextranjero": 5266,
      "Ġmone": 5267,
      "ĠControl": 5268,
      "ĠasociaciÃ³n": 5269,
      "Ġmensual": 5270,
      "Ġutilizando": 5271,
      "Ġestrec": 5272,
      "ĠbÃ¡sicas": 5273,
      "tique": 5274,
      "Ġos": 5275,
      "ĠCal": 5276,
      "alia": 5277,
      "una": 5278,
      "Ġcoher": 5279,
      "ĠSERVICI": 5280,
      "forme": 5281,
      "Ġanticip": 5282,
      "Ġacus": 5283,
      "omend": 5284,
      "ArtÃŃculo": 5285,
      "ĠEqui": 5286,
      "Ã³vil": 5287,
      "ĠDISPOSI": 5288,
      "ĠpresiÃ³n": 5289,
      "taje": 5290,
      "ĠpolÃŃtico": 5291,
      "Ġesfera": 5292,
      "Ġconseguir": 5293,
      "yÃ³": 5294,
      "Ġdim": 5295,
      "ĠclÃ¡us": 5296,
      "ĠADOP": 5297,
      "Ġcontenidos": 5298,
      "Ġflex": 5299,
      "ĠmÃ©dico": 5300,
      "Ġtributaria": 5301,
      "ĠautomÃ¡": 5302,
      "Ġeuropea": 5303,
      "uerra": 5304,
      "Ġoportunidad": 5305,
      "53": 5306,
      "ĠmisiÃ³n": 5307,
      "ĠdiseÃ±o": 5308,
      "Ġreem": 5309,
      "Ġpesar": 5310,
      "ĠMINISTR": 5311,
      "Ġsalida": 5312,
      "Los": 5313,
      "ger": 5314,
      "Ġdescan": 5315,
      "ĠLabor": 5316,
      "Ġmargen": 5317,
      "ĠAutoridad": 5318,
      "rogas": 5319,
      "Ġsalarial": 5320,
      "Ġrequiere": 5321,
      "Ġsuel": 5322,
      "ĠDefensa": 5323,
      "Ġpresentes": 5324,
      "ĠInf": 5325,
      "Ġmilitares": 5326,
      "Ġrecha": 5327,
      "Ġfrac": 5328,
      "ĠIr": 5329,
      "ĠPrimero": 5330,
      "trina": 5331,
      "ĠEconÃ³mica": 5332,
      "ĠPresupuesto": 5333,
      "Ġestablezca": 5334,
      "Ġefectivamente": 5335,
      "ĠDisp": 5336,
      "Ġausencia": 5337,
      "pol": 5338,
      "logÃŃa": 5339,
      "del": 5340,
      "Ġdificultades": 5341,
      "ĠagrÃŃcolas": 5342,
      "ĠLegislativo": 5343,
      "Ġsuprim": 5344,
      "ancel": 5345,
      "Ġvulnera": 5346,
      "ĠCentral": 5347,
      "Ġelaborar": 5348,
      "ĠCer": 5349,
      "ĠedificaciÃ³n": 5350,
      "org": 5351,
      "Se": 5352,
      "Ġbeneficio": 5353,
      "ĠAgricultura": 5354,
      "ÃŃsticos": 5355,
      "Ġremun": 5356,
      "Ġidenti": 5357,
      "pciones": 5358,
      "Ġprogresos": 5359,
      "Ġculturales": 5360,
      "Ġplano": 5361,
      "Ġmez": 5362,
      "ĠimposiciÃ³n": 5363,
      "ĠsanciÃ³n": 5364,
      "Ġevaluar": 5365,
      "ĠSupremo": 5366,
      "Ġevent": 5367,
      "Ġobtenidos": 5368,
      "tem": 5369,
      "Ġindicado": 5370,
      "Ġoferta": 5371,
      "Ġpermitan": 5372,
      "tienen": 5373,
      "ĠjustificaciÃ³n": 5374,
      "ICACION": 5375,
      "ĠJuzgado": 5376,
      "ĠPortu": 5377,
      "art": 5378,
      "Ġincluyen": 5379,
      "umping": 5380,
      "ĠSra": 5381,
      "Ġrefugiados": 5382,
      "ĠacadÃ©m": 5383,
      "ĠaplicarÃ¡n": 5384,
      "Ġfamiliares": 5385,
      "presiÃ³n": 5386,
      "ĠorientaciÃ³n": 5387,
      "Ġcobertura": 5388,
      "Ġventas": 5389,
      "Ġacta": 5390,
      "Ġinteresada": 5391,
      "ĠsecretarÃŃa": 5392,
      "ub": 5393,
      "Ġapertura": 5394,
      "onces": 5395,
      "ĠFUN": 5396,
      "ĠexposiciÃ³n": 5397,
      "52": 5398,
      "ENTA": 5399,
      "TAMEN": 5400,
      "tividades": 5401,
      "Ġcomen": 5402,
      "Ġparce": 5403,
      "Ġsaber": 5404,
      "Ġestric": 5405,
      "Ġtonel": 5406,
      "Ġcatal": 5407,
      "Ġcarretera": 5408,
      "Ġcuarto": 5409,
      "NO": 5410,
      "Ġdeterminada": 5411,
      "Ġespaci": 5412,
      "Ġfavorable": 5413,
      "Ġreflej": 5414,
      "].": 5415,
      "ĠparÃ¡": 5416,
      "ej": 5417,
      "TADOS": 5418,
      "ĠMunicip": 5419,
      "Ġpasado": 5420,
      "ĠSOBRE": 5421,
      "Ġ61": 5422,
      "ude": 5423,
      "ĠÃ¡reas": 5424,
      "ĠrecuperaciÃ³n": 5425,
      "ceder": 5426,
      "Ġayudar": 5427,
      "Ġlimpieza": 5428,
      "idado": 5429,
      "tuaciÃ³n": 5430,
      "dere": 5431,
      "Ġpresupuestos": 5432,
      "Ġtitularidad": 5433,
      "Ġpesqu": 5434,
      "Ġrentas": 5435,
      "ĠverificaciÃ³n": 5436,
      "Ġmanifiesto": 5437,
      "ĠSubdirec": 5438,
      "Ġrealice": 5439,
      "Ġesferas": 5440,
      "Ġeran": 5441,
      "Ġlugares": 5442,
      "ÂłÂł": 5443,
      "Ġlig": 5444,
      "Ġmodalidad": 5445,
      "Ġdiv": 5446,
      "ĠANEXO": 5447,
      "incu": 5448,
      "ĠmarÃŃti": 5449,
      "Ġesenciales": 5450,
      "tificar": 5451,
      "ĠpodrÃŃan": 5452,
      "Ġexperim": 5453,
      "Ġplus": 5454,
      "tÃ¡": 5455,
      "Ġdisponer": 5456,
      "plom": 5457,
      "Ġadecuadas": 5458,
      "ĠTras": 5459,
      "Ġvoluntad": 5460,
      "entan": 5461,
      "Ġimportes": 5462,
      "pera": 5463,
      "ĠTransp": 5464,
      "identa": 5465,
      "dir": 5466,
      "Ġanimal": 5467,
      "________________": 5468,
      "ĠasignaciÃ³n": 5469,
      "Ġmic": 5470,
      "ĠSIG": 5471,
      "Ġelector": 5472,
      "Ġdelegaciones": 5473,
      "69": 5474,
      "Ġenfermedades": 5475,
      "Ġalumnos": 5476,
      "cidos": 5477,
      "ĠretribuciÃ³n": 5478,
      "ĠseÃ±alado": 5479,
      "Ġterritorios": 5480,
      "ato": 5481,
      "Ġconceder": 5482,
      "Ġarrendamiento": 5483,
      "Ġresponsabilidades": 5484,
      "ĠtodavÃŃa": 5485,
      "Ġempresario": 5486,
      "ĠRusia": 5487,
      "istÃ³r": 5488,
      "Ġparticipaciones": 5489,
      "ĠPÃºblico": 5490,
      "ley": 5491,
      "endario": 5492,
      "Ġadecuados": 5493,
      "ĠPaÃŃses": 5494,
      "Ġregla": 5495,
      "ĠSOL": 5496,
      "Ġsupervis": 5497,
      "Ġcontacto": 5498,
      "Ġelecciones": 5499,
      "Ġobligado": 5500,
      "riÃ³": 5501,
      "Ġdero": 5502,
      "Ġdesestim": 5503,
      "Ġpreceptos": 5504,
      "guar": 5505,
      "Ġarch": 5506,
      "ĠMujer": 5507,
      "ĠComp": 5508,
      "ĠSEGUN": 5509,
      "Ġhijo": 5510,
      "Ġren": 5511,
      "xta": 5512,
      "ĠÃ©stas": 5513,
      "ĠDemocrÃ¡tica": 5514,
      "ĠIndustria": 5515,
      "ĠAh": 5516,
      "Ġconcretas": 5517,
      "tio": 5518,
      "ĠBenefici": 5519,
      "ĠBo": 5520,
      "ĠADMINISTR": 5521,
      "quÃŃa": 5522,
      "ĠseÃ±alar": 5523,
      "fron": 5524,
      "ĠhomologaciÃ³n": 5525,
      "idencial": 5526,
      "antil": 5527,
      "ĠindÃŃgenas": 5528,
      "ĠRecursos": 5529,
      "ĠalgÃºn": 5530,
      "Ġvers": 5531,
      "ĠMIS": 5532,
      "Ġblan": 5533,
      "Ġaprobada": 5534,
      "ĠsatisfacciÃ³n": 5535,
      "Ġhaberse": 5536,
      "Ġfomentar": 5537,
      "ĠORGAN": 5538,
      "Ġemp": 5539,
      "Ġseguros": 5540,
      "Ġposibilidades": 5541,
      "ĠSon": 5542,
      "Ġerror": 5543,
      "partamentos": 5544,
      "Ġaportaciones": 5545,
      "plemento": 5546,
      "ĠPromo": 5547,
      "Ġespacios": 5548,
      "Ġsimpl": 5549,
      "2014": 5550,
      "ĠTO": 5551,
      "igraciÃ³n": 5552,
      "Ġbeneficiario": 5553,
      "TORI": 5554,
      "ted": 5555,
      "ĠLu": 5556,
      "ĠOc": 5557,
      "Ġhal": 5558,
      "Ġhorario": 5559,
      "inario": 5560,
      "landia": 5561,
      "Ġdetermina": 5562,
      "ĠelectrÃ³nico": 5563,
      "Ã³mo": 5564,
      "Ġproba": 5565,
      "Ġcompra": 5566,
      "Ġges": 5567,
      "ÃŃcil": 5568,
      "Ġsubven": 5569,
      "har": 5570,
      "Ġpasivos": 5571,
      "Ġabsor": 5572,
      "ĠPartida": 5573,
      "Ġfija": 5574,
      "CIAS": 5575,
      "eca": 5576,
      "PF": 5577,
      "Ġpronunci": 5578,
      "Ġconstitutivo": 5579,
      "Ġreglamentariamente": 5580,
      "ĠOrganismo": 5581,
      "Ġbuque": 5582,
      "Ġreservas": 5583,
      "Ġapoyar": 5584,
      "Ġimpositivo": 5585,
      "Ġgestion": 5586,
      "yug": 5587,
      "Ġcapa": 5588,
      "igro": 5589,
      "ĠdifÃŃcil": 5590,
      "Ġdependi": 5591,
      "Ġopera": 5592,
      "ĠNi": 5593,
      "Ġcorpor": 5594,
      ".\"": 5595,
      "entarios": 5596,
      "ĠaquÃŃ": 5597,
      "ĠlÃŃneas": 5598,
      "SIÃĵN": 5599,
      "gue": 5600,
      "Ġempleado": 5601,
      "ĠObras": 5602,
      "ĠREGLAMENTO": 5603,
      "ĠDiv": 5604,
      "ĠPRIM": 5605,
      "Ġcomba": 5606,
      "ĠSI": 5607,
      "Ġdeliber": 5608,
      "Ġinterponer": 5609,
      "Ġinflu": 5610,
      "ecimiento": 5611,
      "viene": 5612,
      "Ġdeduci": 5613,
      "cientes": 5614,
      "Ġproduzca": 5615,
      "olÃ³gico": 5616,
      "Ġclientes": 5617,
      "Ġapreci": 5618,
      "Ġclaramente": 5619,
      "ĠCuerpo": 5620,
      "ĠCONSEJO": 5621,
      "ĠjurÃŃdicos": 5622,
      "icado": 5623,
      "Ġcomien": 5624,
      "Ġidi": 5625,
      "brica": 5626,
      "Ġestima": 5627,
      "Ġmad": 5628,
      "Ġfe": 5629,
      "ĠCultura": 5630,
      "Ġub": 5631,
      "ĠEuropeas": 5632,
      "ecomun": 5633,
      "Ġdeclarar": 5634,
      "Ġutilizado": 5635,
      "ĠRef": 5636,
      "Ġexistente": 5637,
      "Ġmotor": 5638,
      "ĠFrancia": 5639,
      "Ġcerr": 5640,
      "Ġentonces": 5641,
      "Ġpublicidad": 5642,
      "Ġcampo": 5643,
      "ĠAlemania": 5644,
      "Ġmasa": 5645,
      "ĠGR": 5646,
      "ĠAPL": 5647,
      "Ġ72": 5648,
      "Ġdada": 5649,
      "Ġmedioambi": 5650,
      "Ã¡mica": 5651,
      "ĠCos": 5652,
      "Ġdestinado": 5653,
      "ĠelecciÃ³n": 5654,
      "pular": 5655,
      "ocales": 5656,
      "MITI": 5657,
      "landa": 5658,
      "ĠConsejerÃŃa": 5659,
      "Ġata": 5660,
      "tn": 5661,
      "ĠdenominaciÃ³n": 5662,
      "gadas": 5663,
      "Ġsimul": 5664,
      "ance": 5665,
      "ĠantelaciÃ³n": 5666,
      "yas": 5667,
      "Ġconocer": 5668,
      "Ġcircunstancia": 5669,
      "ĠexpediciÃ³n": 5670,
      "Ġrecord": 5671,
      "Ġcubrir": 5672,
      "ĠcÃ³n": 5673,
      "Ġnuclear": 5674,
      "Ġfalle": 5675,
      "VIS": 5676,
      "ĠEXC": 5677,
      "ĠPla": 5678,
      "ment": 5679,
      "Ġexisten": 5680,
      "Ġaerona": 5681,
      "Ġ1989": 5682,
      "ĠCorte": 5683,
      "Ġarancel": 5684,
      "Ġconsumidores": 5685,
      "Ġsecund": 5686,
      "Ġace": 5687,
      "Ġinmo": 5688,
      "Ġordinario": 5689,
      "Ġejempl": 5690,
      "Ġpan": 5691,
      "Ġdisfrute": 5692,
      "ĠmÃ©ri": 5693,
      "Ġsuficientes": 5694,
      "Ġdig": 5695,
      "Ġpeligro": 5696,
      "Ġcarb": 5697,
      "Ġlicencias": 5698,
      "lateral": 5699,
      "Ġarg": 5700,
      "ĠpequeÃ±as": 5701,
      "ĠVista": 5702,
      "Ġinstancia": 5703,
      "Ġdoctrina": 5704,
      "ĠDICTAMEN": 5705,
      "ĠCuar": 5706,
      "Ġequip": 5707,
      "Ġtesti": 5708,
      "Ġdiferencias": 5709,
      "ĠMAR": 5710,
      "ĠautonomÃŃa": 5711,
      "Ġsil": 5712,
      "Ġfil": 5713,
      "Ġreferido": 5714,
      "itaciones": 5715,
      "ĠÃ©x": 5716,
      "TS": 5717,
      "Ġasum": 5718,
      "Ġpercib": 5719,
      "Ġveces": 5720,
      "INA": 5721,
      "Ġcolectivos": 5722,
      "bilit": 5723,
      "Ġpudiera": 5724,
      "Ġllegar": 5725,
      "iguen": 5726,
      "valuaciÃ³n": 5727,
      "Ġconsidere": 5728,
      "iras": 5729,
      "Ġrespectivos": 5730,
      "ĠproporciÃ³n": 5731,
      "Ġtre": 5732,
      "ĠhÃ¡": 5733,
      "Ġcompleto": 5734,
      "ĠEspaÃ±ola": 5735,
      "ĠExteriores": 5736,
      "Ġpidi": 5737,
      "ĠconsiderarÃ¡n": 5738,
      "iado": 5739,
      "Ġom": 5740,
      "FER": 5741,
      "TIL": 5742,
      "Ġplantilla": 5743,
      "ĠFinalidad": 5744,
      "=\"": 5745,
      "Ġrefieren": 5746,
      "ĠPresupuestos": 5747,
      "itales": 5748,
      "ĠJudicial": 5749,
      "Ġsolicitado": 5750,
      "Ġrecomienda": 5751,
      "Ġago": 5752,
      "Ġaparatos": 5753,
      "Ġprevenir": 5754,
      "Ġindicadores": 5755,
      "Ġconsideran": 5756,
      "Ġactuales": 5757,
      "ĠcesiÃ³n": 5758,
      "Ġfamilias": 5759,
      "Ġimpuestos": 5760,
      "Ġviolaciones": 5761,
      "ĠESPE": 5762,
      "RESPON": 5763,
      "Ġacertado": 5764,
      "ĠPrevenciÃ³n": 5765,
      "fique": 5766,
      "Î¹": 5767,
      "trada": 5768,
      "ĠCada": 5769,
      "PC": 5770,
      "Ġsupone": 5771,
      "Ġinternos": 5772,
      "ĠelectrÃ³nica": 5773,
      "Ġactualiz": 5774,
      "kistÃ¡n": 5775,
      "olÃ³gicos": 5776,
      "Ġletras": 5777,
      "duce": 5778,
      "ĠDEB": 5779,
      "ĠPrimera": 5780,
      "Ġmodificada": 5781,
      "ĠOp": 5782,
      "CRE": 5783,
      "Ġofre": 5784,
      "ork": 5785,
      "Ġfoto": 5786,
      "Ġinformar": 5787,
      "tuales": 5788,
      "QUE": 5789,
      "Ġvisi": 5790,
      "ĠCORRESPON": 5791,
      "89": 5792,
      "ĠjubilaciÃ³n": 5793,
      "Ġall": 5794,
      "taur": 5795,
      "ĠCrÃ©di": 5796,
      "âĢĶ": 5797,
      "bilizaciÃ³n": 5798,
      "Ġminu": 5799,
      "Ġmemoria": 5800,
      "Ġprincipalmente": 5801,
      "Ġeficiencia": 5802,
      "Ġfich": 5803,
      "Ġfortalecer": 5804,
      "ĠfÃ³rm": 5805,
      "Ġcontemplados": 5806,
      "Ġconver": 5807,
      "Ġcontencioso": 5808,
      "Ġtabl": 5809,
      "Ġedificios": 5810,
      "Ġhon": 5811,
      "Ġhubieran": 5812,
      "ĠFecha": 5813,
      "ko": 5814,
      "ĠbÃ¡sico": 5815,
      "ĠPaz": 5816,
      "ĠremisiÃ³n": 5817,
      "Ġremitido": 5818,
      "Ġmisiones": 5819,
      "ĠdescripciÃ³n": 5820,
      "Ġnumeros": 5821,
      "~~": 5822,
      "ĠTRANS": 5823,
      "ĠCondi": 5824,
      "iquen": 5825,
      "Ġencam": 5826,
      "Ġafirma": 5827,
      "cimientos": 5828,
      "gica": 5829,
      "ÃŃes": 5830,
      "Ġpena": 5831,
      "ĠGuar": 5832,
      "Ġ(*": 5833,
      "Ġtratar": 5834,
      "Ġmayores": 5835,
      "ĠCentros": 5836,
      "Ġensayos": 5837,
      "ĠprohibiciÃ³n": 5838,
      "Ġrealizarse": 5839,
      "ĠIrlanda": 5840,
      "Ġbre": 5841,
      "ĠTor": 5842,
      "pios": 5843,
      "Ġmuerte": 5844,
      "ulidad": 5845,
      "Ġtrim": 5846,
      "Ġcontenidas": 5847,
      "ĠClas": 5848,
      "Ġhumano": 5849,
      "Ġ65": 5850,
      "ĠJos": 5851,
      "icia": 5852,
      "ombre": 5853,
      "Ġdesarme": 5854,
      "Ġguerra": 5855,
      "09": 5856,
      "Ġreconoce": 5857,
      "Ġav": 5858,
      "isti": 5859,
      "ĠMEDI": 5860,
      "Ġileg": 5861,
      "Ġpotes": 5862,
      "Ġfacultades": 5863,
      "Ġnuestros": 5864,
      "Ġeducativo": 5865,
      "Ġperfec": 5866,
      "adÃ¡": 5867,
      "Ġencargado": 5868,
      "Ġtribunales": 5869,
      "ĠESTADO": 5870,
      "ĠSECRETARIO": 5871,
      "Ġprimas": 5872,
      "ĠFacul": 5873,
      "VE": 5874,
      "ĠParti": 5875,
      "Ġespera": 5876,
      "Ġluz": 5877,
      "ĠEmpleo": 5878,
      "ĠInvestigaciÃ³n": 5879,
      "hor": 5880,
      "dole": 5881,
      "ĠprocederÃ¡": 5882,
      "Ġmedicamentos": 5883,
      "ĠactÃº": 5884,
      "Ã¨s": 5885,
      "ÏĦ": 5886,
      "Ġperspectiva": 5887,
      "rden": 5888,
      "Ġsubvencion": 5889,
      "ĠProvincial": 5890,
      "ĠVig": 5891,
      "Ġdirigida": 5892,
      "Ġprovo": 5893,
      "Ġautorizado": 5894,
      "Ġocho": 5895,
      "cciÃ³n": 5896,
      "ĠInterior": 5897,
      "Ġfabricante": 5898,
      "ĠAbog": 5899,
      "Ġais": 5900,
      "ĠAg": 5901,
      "ĠRelator": 5902,
      "Ġdetec": 5903,
      "ĠMilenio": 5904,
      "ĠEnergÃŃa": 5905,
      "ĠindicaciÃ³n": 5906,
      "viera": 5907,
      "Ġdirector": 5908,
      "ĠVÃ©ase": 5909,
      "vir": 5910,
      "Ġsoporte": 5911,
      "if": 5912,
      "CEP": 5913,
      "Ġgracias": 5914,
      "Ġdesestimar": 5915,
      "ĠEntidades": 5916,
      "icepres": 5917,
      "ĠADOPTADO": 5918,
      "Ġeuropeo": 5919,
      "Ġinforma": 5920,
      "Ġidentidad": 5921,
      "ĠEFEC": 5922,
      "Ġprioridad": 5923,
      "ĠMÃ¡s": 5924,
      "Ġpretende": 5925,
      "Ġencamin": 5926,
      "Ġconstitucional": 5927,
      "84": 5928,
      "ĠColectivo": 5929,
      "ĠCual": 5930,
      "Ġafectadas": 5931,
      "Ġnulidad": 5932,
      "nidad": 5933,
      "ANTE": 5934,
      "Ġtransparencia": 5935,
      "garÃ¡": 5936,
      "ĠPolicÃŃa": 5937,
      "Ġinser": 5938,
      "ĠMesa": 5939,
      "ĠEstatutos": 5940,
      "Ġpaso": 5941,
      "ĠocasiÃ³n": 5942,
      "ĠinformÃ³": 5943,
      "ĠparÃ¡metros": 5944,
      "ĠcampaÃ±a": 5945,
      "Ġ500": 5946,
      "Ã¡mara": 5947,
      "dez": 5948,
      "cho": 5949,
      "igi": 5950,
      "Ġcarta": 5951,
      "Ġadelan": 5952,
      "ĠcÃ³nyug": 5953,
      "86": 5954,
      "Ġprocedente": 5955,
      "Ġconjunta": 5956,
      "---": 5957,
      "ongitud": 5958,
      "cepti": 5959,
      "Ġindustriales": 5960,
      "Ġetique": 5961,
      "Ġvan": 5962,
      "Ġinfraestructura": 5963,
      "Ġintegrado": 5964,
      "Ġherramientas": 5965,
      "ÃŃos": 5966,
      "Ġorient": 5967,
      "Ġblo": 5968,
      "ĠGas": 5969,
      "Ġconstruc": 5970,
      "ĠPUBL": 5971,
      "Ġmetros": 5972,
      "Ġprevisiones": 5973,
      "OG": 5974,
      "rin": 5975,
      "83": 5976,
      "Ġnacimiento": 5977,
      "cidental": 5978,
      "Ġtasas": 5979,
      "Ġexten": 5980,
      "Ġadmiti": 5981,
      "ĠorgÃ¡n": 5982,
      "ĠÃĵ": 5983,
      "ĠIngen": 5984,
      "Ġconjuntamente": 5985,
      "etarios": 5986,
      "ĠActividades": 5987,
      "Ġhizo": 5988,
      "Ġasumi": 5989,
      "birÃ¡": 5990,
      "Ġestablezcan": 5991,
      "ĠPe": 5992,
      "Ġanal": 5993,
      "Ġvaria": 5994,
      "ĠVIII": 5995,
      "Ġfijado": 5996,
      "Ġaplicando": 5997,
      "ĠdetenciÃ³n": 5998,
      "ĠdeterminarÃ¡": 5999,
      "Ġreform": 6000,
      "labor": 6001,
      "Ġparcialmente": 6002,
      "anim": 6003,
      "ĠAux": 6004,
      "ĠDenominaciÃ³n": 6005,
      "ĠNIF": 6006,
      "Ġactiva": 6007,
      "vina": 6008,
      "ugos": 6009,
      "Ġanexos": 6010,
      "Ġpropone": 6011,
      "Ġ84": 6012,
      "Ġdesa": 6013,
      "ĠopciÃ³n": 6014,
      "Ġincapacidad": 6015,
      "Ġamor": 6016,
      "Ġtrasl": 6017,
      "Ġargum": 6018,
      "ĠanÃ¡lo": 6019,
      "ĠManten": 6020,
      "Ġ1988": 6021,
      "Ġmoder": 6022,
      "ĠCumbre": 6023,
      "tt": 6024,
      "rabe": 6025,
      "ĠdevoluciÃ³n": 6026,
      "ierra": 6027,
      "Ġsindicales": 6028,
      "82": 6029,
      "ĠCastilla": 6030,
      "Ġfru": 6031,
      "Ġmuestras": 6032,
      "Ġposteriores": 6033,
      "ĠexclusiÃ³n": 6034,
      "Ġperteneci": 6035,
      "Ġprivadas": 6036,
      "Ġamplio": 6037,
      "stal": 6038,
      "Ġanaliz": 6039,
      "Ġcierto": 6040,
      "UESTO": 6041,
      "Ġmol": 6042,
      "Ġprioridades": 6043,
      "Ġprivada": 6044,
      "ĠSem": 6045,
      "ĠGeneralitat": 6046,
      "ĠaceptaciÃ³n": 6047,
      "pul": 6048,
      "Ġsustituye": 6049,
      "jera": 6050,
      "ĠCl": 6051,
      "Ġdesc": 6052,
      "Ġcalendario": 6053,
      "ĠdesempeÃ±o": 6054,
      "Ġexpedientes": 6055,
      "Ġdilig": 6056,
      "Ġclaro": 6057,
      "anader": 6058,
      "tional": 6059,
      "Ġ149": 6060,
      "Ġsustancia": 6061,
      "ĠobstÃ¡": 6062,
      "Ġdenuncia": 6063,
      "Ġtitulado": 6064,
      "Ġempresariales": 6065,
      "Ġtreinta": 6066,
      "Ġautorizados": 6067,
      "Las": 6068,
      "Ġinconstitu": 6069,
      "ĠÂ»": 6070,
      "ĠPlus": 6071,
      "bu": 6072,
      "Ġprece": 6073,
      "puto": 6074,
      "Ġdelim": 6075,
      "Ġdominio": 6076,
      "Ġtoneladas": 6077,
      "Ġfuncional": 6078,
      "Ġobligados": 6079,
      "Ġcuerpo": 6080,
      "Ġcorriente": 6081,
      "ĠJo": 6082,
      "ĠPNUD": 6083,
      "Ġpresentadas": 6084,
      "oj": 6085,
      "Ġinmediata": 6086,
      "Ġefectuadas": 6087,
      "Ġhaga": 6088,
      "Ã¶": 6089,
      "Ġcolum": 6090,
      "Ġutilizarse": 6091,
      "Ġpide": 6092,
      "ĠviolaciÃ³n": 6093,
      "Ġregistros": 6094,
      "vas": 6095,
      "Ġdoble": 6096,
      "Ġtribunal": 6097,
      "ĠrecomendaciÃ³n": 6098,
      "1990": 6099,
      "Ġsuscri": 6100,
      "ĠAuton": 6101,
      "ĠconsolidaciÃ³n": 6102,
      "Ġcomplementarias": 6103,
      "ĠcomprobaciÃ³n": 6104,
      "andia": 6105,
      "Ġalco": 6106,
      "ARAN": 6107,
      "cÃ©u": 6108,
      "Ġtampoco": 6109,
      "Ġencuentran": 6110,
      "ificado": 6111,
      "Ġautorizaciones": 6112,
      "ĠORDEN": 6113,
      "ĠalimentaciÃ³n": 6114,
      "ĠSanta": 6115,
      "ĠGal": 6116,
      "Ġdescon": 6117,
      "Ġmuchas": 6118,
      "Ġordenamiento": 6119,
      "ĠAsia": 6120,
      "Ġtranscurrido": 6121,
      "Ġbor": 6122,
      "ĠESTE": 6123,
      "pal": 6124,
      "Ġ>": 6125,
      "Ġindividuales": 6126,
      "ĠDivisiÃ³n": 6127,
      "misiones": 6128,
      "1994": 6129,
      "Ġdispositivo": 6130,
      "agn": 6131,
      "rupciÃ³n": 6132,
      "CU": 6133,
      "racia": 6134,
      "gal": 6135,
      "ĠFE": 6136,
      "fricana": 6137,
      "siÃ³n": 6138,
      "ĠGin": 6139,
      "Ġaument": 6140,
      "geno": 6141,
      "Ġempe": 6142,
      "Ġ92": 6143,
      "Ã³mputo": 6144,
      "cima": 6145,
      "ĠART": 6146,
      "ĠTema": 6147,
      "ĠESPA": 6148,
      "Ġveg": 6149,
      "Ġdescanso": 6150,
      "spir": 6151,
      "ĠColegio": 6152,
      "Ġdistancia": 6153,
      "Ġconsiderado": 6154,
      "Ġrecurr": 6155,
      "Ġtrato": 6156,
      "ĠPue": 6157,
      "istente": 6158,
      "Ġeliminar": 6159,
      "Ġdetermine": 6160,
      "Ġaclar": 6161,
      "ĠProductos": 6162,
      "Ġsac": 6163,
      "1996": 6164,
      "Ġmit": 6165,
      "SIDA": 6166,
      "econ": 6167,
      "Ġconsent": 6168,
      "Ġpatrimoniales": 6169,
      "biÃ³": 6170,
      "Ġespecificaciones": 6171,
      "Es": 6172,
      "ĠSistemas": 6173,
      "ĠEstatal": 6174,
      "ĠPOD": 6175,
      "2015": 6176,
      "TURA": 6177,
      "Ġhe": 6178,
      "utr": 6179,
      "ĠÃ©xito": 6180,
      "Ġconfianza": 6181,
      "sito": 6182,
      "OP": 6183,
      "ĠTodo": 6184,
      "Ġmiras": 6185,
      "rendiza": 6186,
      "ĠprogramaciÃ³n": 6187,
      "ĠAunque": 6188,
      "Ġconsiste": 6189,
      "ĠprisiÃ³n": 6190,
      "Ġdisminu": 6191,
      "Ġutilizadas": 6192,
      "Ġpropon": 6193,
      "ĠEslo": 6194,
      "Ġagrup": 6195,
      "Ġajuste": 6196,
      "Ġtierra": 6197,
      "Ġextranjeros": 6198,
      "ser": 6199,
      "Ġlimitaciones": 6200,
      "Ġenumer": 6201,
      "ĠPatrimonio": 6202,
      "Ġtempera": 6203,
      "Ġconfirm": 6204,
      ")-": 6205,
      "Ġneto": 6206,
      "Ġalgo": 6207,
      "xi": 6208,
      "SON": 6209,
      "ĠestadÃŃsticas": 6210,
      "Ġsubra": 6211,
      "Ġsujeta": 6212,
      "Ã¡ticas": 6213,
      "Ã³sitos": 6214,
      "pru": 6215,
      "ĠTecn": 6216,
      "Ġfactura": 6217,
      "81": 6218,
      "ĠCEN": 6219,
      "unicipios": 6220,
      "Ġpendientes": 6221,
      "Ġpiezas": 6222,
      "Ġreestruc": 6223,
      "ĠProfesional": 6224,
      "ĠAuto": 6225,
      "Ġacceder": 6226,
      "Ġpadres": 6227,
      "Ġmos": 6228,
      "aran": 6229,
      "ĠprevisiÃ³n": 6230,
      "Ġgratu": 6231,
      "ĠHer": 6232,
      "ceptor": 6233,
      "Ġespecie": 6234,
      "tesis": 6235,
      "LOS": 6236,
      "Ġsuscepti": 6237,
      "ĠdarÃ¡": 6238,
      "ĠAsesor": 6239,
      "Ġinsu": 6240,
      "cina": 6241,
      "ĠRector": 6242,
      "Ġposteriormente": 6243,
      "Ġagrade": 6244,
      "Ġobligatoria": 6245,
      "Ġsum": 6246,
      "Ġdeban": 6247,
      "ĠhistÃ³r": 6248,
      "Ġran": 6249,
      "ĠespaÃ±ola": 6250,
      "Ġcontribuyente": 6251,
      "ĠniÃ±as": 6252,
      "ĠUniversidades": 6253,
      "ĠMiembro": 6254,
      "ĠintenciÃ³n": 6255,
      "ĠTRL": 6256,
      "Ġexac": 6257,
      "uego": 6258,
      "Ġhacerse": 6259,
      "ĠefectuarÃ¡": 6260,
      "Ġaire": 6261,
      "Ġrecons": 6262,
      "ĠinstituciÃ³n": 6263,
      "ĠSector": 6264,
      "CEF": 6265,
      "ĠlÃŃqu": 6266,
      "Ġcrea": 6267,
      "CC": 6268,
      "Ġincent": 6269,
      "tente": 6270,
      "Ġsemana": 6271,
      "ĠTal": 6272,
      "Ġreales": 6273,
      "Ġexista": 6274,
      "ĠcÃ³mputo": 6275,
      "rende": 6276,
      "ĠSIGU": 6277,
      "tÃŃs": 6278,
      "CED": 6279,
      "NA": 6280,
      "Ġprimeros": 6281,
      "Ġcomunitarios": 6282,
      "ĠModificaciÃ³n": 6283,
      "Ġsiete": 6284,
      "Ġferro": 6285,
      "Ġdebemos": 6286,
      "Ġindeb": 6287,
      "Ġdemora": 6288,
      "Ġredactado": 6289,
      "Ġinver": 6290,
      "Ġconducta": 6291,
      "Ġdepartamento": 6292,
      "administra": 6293,
      "ĠadjudicaciÃ³n": 6294,
      "Ġregulan": 6295,
      "Ġsufrido": 6296,
      "Ġcolor": 6297,
      "Ġcomisiones": 6298,
      "Ġtardar": 6299,
      "Ġincompati": 6300,
      "ĠDetermin": 6301,
      "IMIENTO": 6302,
      "Ġcliente": 6303,
      "ducciones": 6304,
      "animidad": 6305,
      "Ġcuyos": 6306,
      "Ġrazonable": 6307,
      "atoria": 6308,
      "itÃ©s": 6309,
      "uras": 6310,
      "Ġbienio": 6311,
      "ĠtenÃŃa": 6312,
      "comun": 6313,
      "Ġresidentes": 6314,
      "ĠsistemÃ¡": 6315,
      "Ġinstitucional": 6316,
      "Ġreembol": 6317,
      "Ġfes": 6318,
      "Ġaltura": 6319,
      "Ġ2016": 6320,
      "Ġcultura": 6321,
      "Ġenmiendas": 6322,
      "Ġsolamente": 6323,
      "Ġunanimidad": 6324,
      "si": 6325,
      "ĠACUER": 6326,
      "ĠNota": 6327,
      "ĠtransiciÃ³n": 6328,
      "Ġcombin": 6329,
      "Ġreferida": 6330,
      "tent": 6331,
      "Ġinfraestructuras": 6332,
      "ciliaciÃ³n": 6333,
      "Ġaband": 6334,
      "Ġabordar": 6335,
      "ĠArt": 6336,
      "izadas": 6337,
      "Ġhidro": 6338,
      "olÃ³gicas": 6339,
      "Ġreconocer": 6340,
      "ĠretenciÃ³n": 6341,
      "ĠDado": 6342,
      "Ġsatisfec": 6343,
      "Ġrespectivas": 6344,
      "lor": 6345,
      "Ġprima": 6346,
      "ĠNorte": 6347,
      "inter": 6348,
      "Ġquince": 6349,
      "ĠNor": 6350,
      "PEC": 6351,
      "Ġprivados": 6352,
      "ĠConstitucional": 6353,
      "Ġsanitarios": 6354,
      "Ġcitados": 6355,
      "Ġhumana": 6356,
      "Ġintroduci": 6357,
      "burgo": 6358,
      "ĠSR": 6359,
      "Ġplanta": 6360,
      "rendizaje": 6361,
      "Ġdinero": 6362,
      "Ġsimilar": 6363,
      "Ġexclusiva": 6364,
      "ĠLEY": 6365,
      "ĠDicha": 6366,
      "aj": 6367,
      "Ġasc": 6368,
      "ĠTipo": 6369,
      "Ġaplicarse": 6370,
      "Ġplanos": 6371,
      "ĠdesignaciÃ³n": 6372,
      "Ġabierta": 6373,
      "ĠformulaciÃ³n": 6374,
      "Ġplaneamiento": 6375,
      "ĠInd": 6376,
      "Ġmatr": 6377,
      "tituciÃ³n": 6378,
      "Ġabono": 6379,
      "Ġhog": 6380,
      "ĠGinebra": 6381,
      "talia": 6382,
      "Ġintermedi": 6383,
      "Ġestatales": 6384,
      "Ġempresarios": 6385,
      "Ġresponder": 6386,
      "Ġpremi": 6387,
      "Ġsiguen": 6388,
      "Ġprestados": 6389,
      "conom": 6390,
      "EG": 6391,
      "Pro": 6392,
      "Ġestructuras": 6393,
      "Ġescolar": 6394,
      "ĠCongo": 6395,
      "erras": 6396,
      "Ġpartidas": 6397,
      "Ġdescu": 6398,
      "Ġmercantil": 6399,
      "Î½": 6400,
      "osos": 6401,
      "ĠRegional": 6402,
      "ĠUnidad": 6403,
      "Ġfundamento": 6404,
      "ĠSubs": 6405,
      "ucÃŃa": 6406,
      "Ġcargos": 6407,
      "leo": 6408,
      "Ġjurispru": 6409,
      "Ġ73": 6410,
      "Ġcorrecta": 6411,
      "Ġsalariales": 6412,
      "Ġcarne": 6413,
      "habla": 6414,
      "BIER": 6415,
      "ĠLiber": 6416,
      "Ġsalva": 6417,
      "Ġ1987": 6418,
      "ĠAndal": 6419,
      "Ġinfantil": 6420,
      "entaria": 6421,
      "ĠDatos": 6422,
      "idro": 6423,
      "Ġindican": 6424,
      "ugosla": 6425,
      "Ġvalidez": 6426,
      "Ġduda": 6427,
      "uega": 6428,
      "ĠtrÃ¡n": 6429,
      "Ġoportuno": 6430,
      "Ġmodelos": 6431,
      "baciÃ³n": 6432,
      "Ġ300": 6433,
      "quilo": 6434,
      "ĠEJ": 6435,
      "onal": 6436,
      "Ġcuarta": 6437,
      "ĠcÃ³mo": 6438,
      "Ġ1986": 6439,
      "ĠEvaluaciÃ³n": 6440,
      "ĠCoordinaciÃ³n": 6441,
      "Ġ95": 6442,
      "ĠprÃ©stamos": 6443,
      "Ġdonantes": 6444,
      "ĠsustituciÃ³n": 6445,
      "Ġretras": 6446,
      "ĠdisminuciÃ³n": 6447,
      "De": 6448,
      "Ġtraspas": 6449,
      "Ġnav": 6450,
      "ĠApo": 6451,
      "Ġcomunitarias": 6452,
      "Ġdesplazamiento": 6453,
      "ĠBeneficiario": 6454,
      "MOS": 6455,
      "Ġlongitud": 6456,
      "Ġescuelas": 6457,
      "Ġfirmado": 6458,
      "ĠPleno": 6459,
      "ĠfinalizaciÃ³n": 6460,
      "ecomunicaciones": 6461,
      "ĠPrepar": 6462,
      "Ġcierre": 6463,
      "Ãºa": 6464,
      "tÃ©": 6465,
      "ty": 6466,
      "ĠReun": 6467,
      "ieg": 6468,
      "izas": 6469,
      "Ġaprovechamiento": 6470,
      "ĠPero": 6471,
      "tidos": 6472,
      "Ġdirecto": 6473,
      "ĠtrÃ¡nsito": 6474,
      "sk": 6475,
      "ĠBos": 6476,
      "Ġhabl": 6477,
      "ĠESTABLE": 6478,
      "Ġlegisl": 6479,
      "Ġoriginal": 6480,
      "ĠDER": 6481,
      "Ġvelo": 6482,
      "Ġintel": 6483,
      "Ġocasion": 6484,
      "Ġveter": 6485,
      "Ġimputa": 6486,
      "bricaciÃ³n": 6487,
      "ZA": 6488,
      "Ġenfr": 6489,
      "Ġpresta": 6490,
      "Ġexigencias": 6491,
      "ĠaÃ±ade": 6492,
      "ĠextinciÃ³n": 6493,
      "CIEN": 6494,
      "CIO": 6495,
      "Ġafecta": 6496,
      "Ã³gica": 6497,
      "omas": 6498,
      "PAR": 6499,
      "Ġconstru": 6500,
      "Ġfrecuencia": 6501,
      "Ġincluyendo": 6502,
      "ĠsujeciÃ³n": 6503,
      "ĠvÃŃas": 6504,
      "Ġmicro": 6505,
      "Ġmetodo": 6506,
      "ĠCompe": 6507,
      "Ġatendiendo": 6508,
      "ĠPesca": 6509,
      "tador": 6510,
      "Ġgases": 6511,
      "Ġinvestigaciones": 6512,
      "Ġreforzar": 6513,
      "IDAS": 6514,
      "Ġcorrespondan": 6515,
      "Re": 6516,
      "pla": 6517,
      "Ġsiguiendo": 6518,
      "Ġ63": 6519,
      "1993": 6520,
      "Ġhaciendo": 6521,
      "feraciÃ³n": 6522,
      "Ġplazas": 6523,
      "Ġclave": 6524,
      "ĠPERSON": 6525,
      "Ġpedi": 6526,
      "Ġconsentimiento": 6527,
      "Ġcontrac": 6528,
      "fras": 6529,
      "ĠPubl": 6530,
      "ĠAp": 6531,
      "ĠConcepto": 6532,
      "ĠPresidenta": 6533,
      "Ã©ndice": 6534,
      "Ġdescar": 6535,
      "nia": 6536,
      "ĠmecÃ¡n": 6537,
      "ĠBur": 6538,
      "Ġadscri": 6539,
      "TICA": 6540,
      "Ġindisp": 6541,
      "Ġaprobar": 6542,
      "Ġproli": 6543,
      "ĠCOMUNIDADES": 6544,
      "ĠÂº": 6545,
      "ĠCul": 6546,
      "Ġdepos": 6547,
      "Ġdrogas": 6548,
      "udo": 6549,
      "UD": 6550,
      "ĠpensiÃ³n": 6551,
      "Ãºlti": 6552,
      "Ġvisit": 6553,
      "esen": 6554,
      "Ġpoblaciones": 6555,
      "orcio": 6556,
      "ĠurbanÃŃstica": 6557,
      "emente": 6558,
      "ĠelÃ©ctrica": 6559,
      "Ġplur": 6560,
      "iar": 6561,
      "Ġ64": 6562,
      "Ġmitad": 6563,
      "Ġdiferente": 6564,
      "Ġtransmiti": 6565,
      "ĠEMP": 6566,
      "Ġpublicado": 6567,
      "Ġsuperar": 6568,
      "Ġcomunicar": 6569,
      "ÃŃcula": 6570,
      "ĠperiÃ³dic": 6571,
      "ĠCanarias": 6572,
      "ganistÃ¡n": 6573,
      "Ġdesemple": 6574,
      "apÃ³n": 6575,
      "ĠCorpor": 6576,
      "ĠagrÃŃcola": 6577,
      "Ġauxiliares": 6578,
      "Ġdefine": 6579,
      "Ġcontempladas": 6580,
      "Ġconsideraciones": 6581,
      "Ġaplicaciones": 6582,
      "ĠLÃŃ": 6583,
      "ĠInspecciÃ³n": 6584,
      "pecto": 6585,
      "Ġdispositivos": 6586,
      "ĠOrdenaciÃ³n": 6587,
      "Ġopiniones": 6588,
      "queo": 6589,
      "Ġconcurso": 6590,
      "ĠDefin": 6591,
      "Ġexceda": 6592,
      "Ġcontabilidad": 6593,
      "Ġaquella": 6594,
      "este": 6595,
      "Ġcese": 6596,
      "ĠOperaciones": 6597,
      "Ġambientales": 6598,
      "ĠBel": 6599,
      "ĠPES": 6600,
      "Ġaprobadas": 6601,
      "Ġabog": 6602,
      "ĠIND": 6603,
      "Ġweb": 6604,
      "Ġpalabras": 6605,
      "ĠdestrucciÃ³n": 6606,
      "ĠComisionado": 6607,
      "istoria": 6608,
      "ill": 6609,
      "ĠmÃŃnimos": 6610,
      "Ġdocente": 6611,
      "ĠCri": 6612,
      "ros": 6613,
      "Ġquedan": 6614,
      "Ġconstante": 6615,
      "Ġemitido": 6616,
      "rdenes": 6617,
      "ICAS": 6618,
      "ĠintroducciÃ³n": 6619,
      "ĠFer": 6620,
      "Ġproduce": 6621,
      "ĠDERECH": 6622,
      "ĠsimultÃ¡n": 6623,
      "Ġocupa": 6624,
      "ĠMINISTRO": 6625,
      "ĠpidiÃ³": 6626,
      "od": 6627,
      "Ġtej": 6628,
      "Ġreligios": 6629,
      "âĢĤ": 6630,
      "ĠSur": 6631,
      "Ġ77": 6632,
      "EA": 6633,
      "ĠimplantaciÃ³n": 6634,
      "tualmente": 6635,
      "iera": 6636,
      "Ġformal": 6637,
      "Ġconcedida": 6638,
      "omin": 6639,
      "Ġadqui": 6640,
      "Ġrealizan": 6641,
      "urrir": 6642,
      "Ġejercicios": 6643,
      "ian": 6644,
      "ĠIT": 6645,
      "Ġcorresponden": 6646,
      "Ġpodido": 6647,
      "Ġanun": 6648,
      "Ġrestantes": 6649,
      "ĠproliferaciÃ³n": 6650,
      "ĠPon": 6651,
      "ĠPopular": 6652,
      "Ġrestricciones": 6653,
      "ĠdiseÃ±": 6654,
      "ieron": 6655,
      "Ġaero": 6656,
      "ĠposesiÃ³n": 6657,
      "restre": 6658,
      "toras": 6659,
      "ificaciones": 6660,
      "Ġvoluntaria": 6661,
      "Ġtaller": 6662,
      "grafÃŃa": 6663,
      "Ġactualidad": 6664,
      "ĠSus": 6665,
      "Â«": 6666,
      "istentes": 6667,
      "ach": 6668,
      "TROS": 6669,
      "ĠAB": 6670,
      "Ġru": 6671,
      "rera": 6672,
      "au": 6673,
      "Ġtrabajar": 6674,
      "Ġaccesor": 6675,
      "ĠseÃ±alÃ³": 6676,
      "ĠfarmacÃ©u": 6677,
      "Ġbanc": 6678,
      "ĠCONVEN": 6679,
      "Ġcuadr": 6680,
      "Ġconcurrencia": 6681,
      "ectores": 6682,
      "Ġsoluciones": 6683,
      "Ġdiscre": 6684,
      "Ġintegrada": 6685,
      "Ġsignifica": 6686,
      "ĠlegÃŃti": 6687,
      "Ġincis": 6688,
      "Ġ93": 6689,
      "trados": 6690,
      "Ġcru": 6691,
      "TIVOS": 6692,
      "ĠGO": 6693,
      "Ġexigidos": 6694,
      "abilidad": 6695,
      "Ġpermisos": 6696,
      "âĢĻ": 6697,
      "Ġcumplen": 6698,
      "Ġcontes": 6699,
      "ĠMAN": 6700,
      "imÃ¡tico": 6701,
      "ĠVicepres": 6702,
      "ĠabonarÃ¡": 6703,
      "ĠEstra": 6704,
      "ĠdebÃŃa": 6705,
      "ĠauditorÃŃa": 6706,
      "Ġreconocido": 6707,
      "CLU": 6708,
      "ĠESPAÃĳ": 6709,
      "ĠYugosla": 6710,
      "ĠCanadÃ¡": 6711,
      "ĠSanidad": 6712,
      "enaz": 6713,
      "Ġfortalecimiento": 6714,
      "ĠAfganistÃ¡n": 6715,
      "Ġaun": 6716,
      "Ġcolumna": 6717,
      "aces": 6718,
      "Ġpoco": 6719,
      "ĠEsc": 6720,
      "Ġurgencia": 6721,
      "Ġhigi": 6722,
      "Ġintegridad": 6723,
      "ĠÐ": 6724,
      "ĠReglam": 6725,
      "ĠPide": 6726,
      "gru": 6727,
      "Ġregulado": 6728,
      "Ġpalabra": 6729,
      "Ġreferente": 6730,
      "ĠTercero": 6731,
      "Ġtip": 6732,
      "Ġconstituir": 6733,
      "Ã§": 6734,
      "Ġlleva": 6735,
      "ĠhabrÃŃa": 6736,
      "ĠorgÃ¡nica": 6737,
      "ĠEstad": 6738,
      "fra": 6739,
      "MBRE": 6740,
      "inam": 6741,
      "ĠEjecutivo": 6742,
      "igrantes": 6743,
      "Ġpone": 6744,
      "Ġamena": 6745,
      "ĠMarco": 6746,
      "Ġasilo": 6747,
      "Ġdistinta": 6748,
      "ĠVAL": 6749,
      "ĠPoder": 6750,
      "vos": 6751,
      "Ġacumul": 6752,
      "Ġalcoh": 6753,
      "ĠnÃºmeros": 6754,
      "Ġofrecer": 6755,
      "Ġpresidente": 6756,
      "Ġresultante": 6757,
      "Ġadmisi": 6758,
      "1985": 6759,
      "Ġcandidatos": 6760,
      "bes": 6761,
      "Ġsir": 6762,
      "ĠVi": 6763,
      "iero": 6764,
      "fon": 6765,
      "tativas": 6766,
      "ĠDeber": 6767,
      "ULAR": 6768,
      "Ġplantas": 6769,
      "metro": 6770,
      "Ġcent": 6771,
      "ariz": 6772,
      "Ġdebiendo": 6773,
      "contin": 6774,
      "Ġcalle": 6775,
      "Ġindicados": 6776,
      "ĠOtras": 6777,
      "Ġinex": 6778,
      "Ġminutos": 6779,
      "Ġdoce": 6780,
      "ĠPROP": 6781,
      "Ġfund": 6782,
      "udaciÃ³n": 6783,
      "tions": 6784,
      "Ġmensa": 6785,
      "Ġtextos": 6786,
      "ĠconexiÃ³n": 6787,
      "ĠDicho": 6788,
      "Ġdepartamentos": 6789,
      "VA": 6790,
      "ĠincluirÃ¡": 6791,
      "Ġfechas": 6792,
      "Ġprorro": 6793,
      "Ġmatrimonio": 6794,
      "Ġprohib": 6795,
      "ĠmÃ©dicos": 6796,
      "ĠdecidiÃ³": 6797,
      "Ġnombramiento": 6798,
      "Ġformuladas": 6799,
      "Ġexcedencia": 6800,
      "ke": 6801,
      ".)": 6802,
      "Com": 6803,
      "Ġcelebrado": 6804,
      "ienen": 6805,
      "anda": 6806,
      "Ġmovilidad": 6807,
      "IZACION": 6808,
      "Ġrevo": 6809,
      "tÃŃa": 6810,
      "quit": 6811,
      "Ġmunicipales": 6812,
      "ĠExper": 6813,
      "Ġsemanas": 6814,
      "Ġhonor": 6815,
      "ibrio": 6816,
      "ĠInternet": 6817,
      "ĠCASO": 6818,
      "CP": 6819,
      "ender": 6820,
      "ĠfijaciÃ³n": 6821,
      "Ġdesg": 6822,
      "Ġmg": 6823,
      "ĠDECRE": 6824,
      "Ġfres": 6825,
      "Ġconferencias": 6826,
      "aduc": 6827,
      "Ġdisponibilidad": 6828,
      "itenci": 6829,
      "Ġprocur": 6830,
      "ĠSUB": 6831,
      "ĠSubdirecciÃ³n": 6832,
      "Ġnacionalidad": 6833,
      "ĠIndia": 6834,
      "Ġafirm": 6835,
      "Ġalquil": 6836,
      "Ġ------------------------------------------------": 6837,
      "ĠBajos": 6838,
      "iere": 6839,
      "Ïģ": 6840,
      "ĠNombre": 6841,
      "Ġderi": 6842,
      "Ġdependencia": 6843,
      "acciones": 6844,
      "ĠaÃ©reo": 6845,
      "terrÃ¡n": 6846,
      "Ġarmados": 6847,
      "Ġinmediato": 6848,
      "unciÃ³n": 6849,
      "Ġpromov": 6850,
      "Ġinvo": 6851,
      "Ġrango": 6852,
      "ĠelectrÃ³nicos": 6853,
      "ÃŃfico": 6854,
      "Ġintroducir": 6855,
      "Ġobserva": 6856,
      "Ġmaqu": 6857,
      "ÃŃr": 6858,
      "Ġincendi": 6859,
      "Ġcuestion": 6860,
      "Ġdiferenci": 6861,
      "Ġ2017": 6862,
      "tidas": 6863,
      "Ġdeneg": 6864,
      "tocolos": 6865,
      "Al": 6866,
      "olv": 6867,
      "Ġdiplom": 6868,
      "entados": 6869,
      "Ġvinculantes": 6870,
      "Ġimpedir": 6871,
      "ĠdesempeÃ±ar": 6872,
      "Ġcontro": 6873,
      "ĠDisposiciones": 6874,
      "ĠsÃ©pti": 6875,
      "ĠÃŃndole": 6876,
      "Ġconsiderando": 6877,
      "Ġtemperatura": 6878,
      "Ġtarea": 6879,
      "Ġencuentr": 6880,
      "ĠEXCMO": 6881,
      "Ġcolectiva": 6882,
      "Ġaconte": 6883,
      "ĠREP": 6884,
      "ĠArag": 6885,
      "Ġbus": 6886,
      "ĠGuardia": 6887,
      "etario": 6888,
      "Ġindispensa": 6889,
      "Ġcitadas": 6890,
      "adura": 6891,
      "econÃ³m": 6892,
      "TIFIC": 6893,
      "Ġresulten": 6894,
      "eric": 6895,
      "Ġturno": 6896,
      "Ġnotificado": 6897,
      "ĠFI": 6898,
      "Ġaccidentes": 6899,
      "ix": 6900,
      "ĠAlimentaciÃ³n": 6901,
      "Ġaprobados": 6902,
      "ĠDICH": 6903,
      "ĠreestructuraciÃ³n": 6904,
      "Ġhumanitaria": 6905,
      "Ġdesarrolla": 6906,
      "ĠTodas": 6907,
      "Ġlici": 6908,
      "ĠCorea": 6909,
      "ĠEcu": 6910,
      "ĠTr": 6911,
      "ĠSAN": 6912,
      "ĠTEN": 6913,
      "ĠCADA": 6914,
      "Ġeficaces": 6915,
      "Ġmovimiento": 6916,
      "Ġprol": 6917,
      "Ġsust": 6918,
      "ĠMantenimiento": 6919,
      "Ġprovincia": 6920,
      "ĠPRODUC": 6921,
      "Ġhubiese": 6922,
      "Ġfijar": 6923,
      "ĠCondiciones": 6924,
      "mina": 6925,
      "quisitos": 6926,
      "ĠSIN": 6927,
      "Ġtotalmente": 6928,
      "Ġcontenida": 6929,
      "ĠFORM": 6930,
      "esta": 6931,
      "ĠacreditaciÃ³n": 6932,
      "Ġimplic": 6933,
      "uno": 6934,
      "Ġrural": 6935,
      "ĠGe": 6936,
      "Ġanorm": 6937,
      "Ġespecializados": 6938,
      "Ġenmienda": 6939,
      "rÃ¡fico": 6940,
      "umo": 6941,
      "bado": 6942,
      "ĠcontaminaciÃ³n": 6943,
      "Ġcapacidades": 6944,
      "ĠPortugal": 6945,
      "Ġfijo": 6946,
      "ĠRecord": 6947,
      "Ġfuente": 6948,
      "Ġcomponente": 6949,
      "ĠYork": 6950,
      "Ġimponer": 6951,
      "Ġimpuls": 6952,
      "ĠactualizaciÃ³n": 6953,
      "ĠclÃŃn": 6954,
      "Ġinconstitucionalidad": 6955,
      "Ã©tico": 6956,
      "ĠseparaciÃ³n": 6957,
      "ECU": 6958,
      "Ġcontable": 6959,
      "ĠHasta": 6960,
      "Ġpatr": 6961,
      "Ġresultar": 6962,
      "mes": 6963,
      "ĠMunicipio": 6964,
      "Ġcontratista": 6965,
      "ĠACUERDO": 6966,
      "itado": 6967,
      "],": 6968,
      "Ġdan": 6969,
      "Ġconcretos": 6970,
      "ĠDECRETO": 6971,
      "Ġpudiendo": 6972,
      "ĠVE": 6973,
      "Ġefectuado": 6974,
      "ĠCEE": 6975,
      "ĠEstruc": 6976,
      "ESION": 6977,
      "ĠAsistencia": 6978,
      "Ġdeclarado": 6979,
      "juici": 6980,
      "ĠTurismo": 6981,
      "Ġmas": 6982,
      "Ġhacerlo": 6983,
      "Ġexportaciones": 6984,
      "ĠElabor": 6985,
      "Ġ66": 6986,
      "ĠAndalucÃŃa": 6987,
      "Ġafecten": 6988,
      "ÃŃdo": 6989,
      "ET": 6990,
      "ĠLocal": 6991,
      "Ã³me": 6992,
      "Ġcifras": 6993,
      "ĠInstrucciÃ³n": 6994,
      "Ġprimaria": 6995,
      "Ġplantea": 6996,
      "Ġcumplido": 6997,
      "Ġrecoge": 6998,
      "zan": 6999,
      "Ġtratado": 7000,
      "ĠpropÃ³sito": 7001,
      "Ġdenunci": 7002,
      "Ġdebida": 7003,
      "ĠurbanizaciÃ³n": 7004,
      "ĠComunicaciÃ³n": 7005,
      "ĠOficiales": 7006,
      "ÃŃz": 7007,
      "ĠinformarÃ¡": 7008,
      "Ġpresentados": 7009,
      "mbito": 7010,
      "dios": 7011,
      "Ã³gico": 7012,
      "ĠreÃºn": 7013,
      "Ġcoe": 7014,
      "Ġdistinto": 7015,
      "dedor": 7016,
      "Ġjurisprudencia": 7017,
      "Ġaplicado": 7018,
      "Ġcomunico": 7019,
      "ĠprÃ³r": 7020,
      "Ġvelocidad": 7021,
      "ĠItalia": 7022,
      "ĠBoletÃŃn": 7023,
      "Ġcumple": 7024,
      "ĠSue": 7025,
      "Ġcoloc": 7026,
      "ĠestimaciÃ³n": 7027,
      "ĠNeg": 7028,
      "ys": 7029,
      "Ġsustancial": 7030,
      "Ġlibertades": 7031,
      "Ġactuar": 7032,
      "Ġcondicion": 7033,
      "genes": 7034,
      "ĠJapÃ³n": 7035,
      "Ġtransfer": 7036,
      "Ġ150": 7037,
      "Ġdeterior": 7038,
      "ĠPari": 7039,
      "capaci": 7040,
      "ĠDar": 7041,
      "Ġpropuesto": 7042,
      "rasil": 7043,
      "Ġproveedores": 7044,
      "Ġmontaje": 7045,
      "ĠEjecutiva": 7046,
      "Ġaprendizaje": 7047,
      "Ġdisponga": 7048,
      "Ġamenaza": 7049,
      "ĠprÃ³ximo": 7050,
      "ĠFuerzas": 7051,
      "Ġejecutar": 7052,
      "ĠestablecerÃ¡": 7053,
      "ĠTurquÃŃa": 7054,
      "Ġparticularmente": 7055,
      "ejo": 7056,
      "Ġpotencial": 7057,
      "ĠcrÃŃ": 7058,
      "Ġpropietarios": 7059,
      "ctos": 7060,
      "Ġhacen": 7061,
      "ĠÃ³rdenes": 7062,
      "Ġbasada": 7063,
      "fiquen": 7064,
      "ensos": 7065,
      "Ġaportar": 7066,
      "Ġsen": 7067,
      "ira": 7068,
      "ĠAuxiliar": 7069,
      "ienes": 7070,
      "Ġexplotaciones": 7071,
      "piÃ©": 7072,
      "Ġjuego": 7073,
      "Ġ98": 7074,
      "Ġimper": 7075,
      "Ġetapa": 7076,
      "Ġsexo": 7077,
      "IMEN": 7078,
      "ĠsÃ³l": 7079,
      "unes": 7080,
      "ĠEXP": 7081,
      "Ġreten": 7082,
      "ĠCOMISION": 7083,
      "Ġ94": 7084,
      "Ġmunicipios": 7085,
      "ulg": 7086,
      "ĠOFICI": 7087,
      "ĠRecon": 7088,
      "tat": 7089,
      "Ġresidente": 7090,
      "Ġampliar": 7091,
      "Ġfacultad": 7092,
      "ĠUNICEF": 7093,
      "Ġproduzcan": 7094,
      "ting": 7095,
      "bano": 7096,
      "CRI": 7097,
      "Ġesp": 7098,
      "ĠÃĵrgan": 7099,
      "ĠFam": 7100,
      "tadores": 7101,
      "ĠcotizaciÃ³n": 7102,
      "Ġindicar": 7103,
      "Ġalimentaria": 7104,
      "xico": 7105,
      "Ġdesas": 7106,
      "Ġoperadores": 7107,
      "Ġestados": 7108,
      "ĠRed": 7109,
      "Ġestamos": 7110,
      "at": 7111,
      "Ġhagan": 7112,
      "Ġ1985": 7113,
      "Ġhici": 7114,
      "icul": 7115,
      "Ġdemues": 7116,
      "Ġ87": 7117,
      "ĠobservaciÃ³n": 7118,
      "ĠOMITI": 7119,
      "-,": 7120,
      "ĠCriterios": 7121,
      "Ġexpro": 7122,
      "enos": 7123,
      "Ã©ticos": 7124,
      "Ġdesignados": 7125,
      "uesta": 7126,
      "CIP": 7127,
      "Ġconcier": 7128,
      "ĠazÃº": 7129,
      "ĠIl": 7130,
      "Ġlegi": 7131,
      "Ġrespal": 7132,
      "ĠHo": 7133,
      "Ġindependientemente": 7134,
      "ĠGo": 7135,
      "ĠForo": 7136,
      "ĠSegunda": 7137,
      "MPL": 7138,
      "ĠversiÃ³n": 7139,
      "ĠlesiÃ³n": 7140,
      "ĠregÃŃmenes": 7141,
      "irmar": 7142,
      "Ġsola": 7143,
      "Ġindependientes": 7144,
      "Ġbio": 7145,
      "ĠJUN": 7146,
      "ĠNA": 7147,
      "Ġcombatir": 7148,
      "Ġinco": 7149,
      "ĠÃºtil": 7150,
      "Ġdocentes": 7151,
      "ĠmÃºlti": 7152,
      "carb": 7153,
      "quitec": 7154,
      "ĠDipu": 7155,
      "Cu": 7156,
      "ĠmÃ©rito": 7157,
      "ĠRealizar": 7158,
      "Ġtarifas": 7159,
      "Ġuniversal": 7160,
      "Ġordinaria": 7161,
      "Ġol": 7162,
      "Ġcau": 7163,
      "Ġdeportivas": 7164,
      "Ġcomprobar": 7165,
      "Ġquedado": 7166,
      "Ġrurales": 7167,
      "ĠSERVICIOS": 7168,
      "Ġsecciones": 7169,
      "ĠpresentarÃ¡": 7170,
      "traje": 7171,
      "ĠSuiza": 7172,
      "pide": 7173,
      "Ġpoten": 7174,
      "ONA": 7175,
      "Ġpresentarse": 7176,
      "Ã³digos": 7177,
      "Ġagente": 7178,
      "osotros": 7179,
      "ĠEUROPEAS": 7180,
      "Ġexces": 7181,
      "Ġcualesquiera": 7182,
      "Ġpresupuestario": 7183,
      "Ġdesea": 7184,
      "ĠDelegaciÃ³n": 7185,
      "ĠTotal": 7186,
      "undaciÃ³n": 7187,
      "Ġpotencia": 7188,
      "Ġdestinatario": 7189,
      "Ġexigir": 7190,
      "Ġproporcional": 7191,
      "ĠRespecto": 7192,
      "ĠCuentas": 7193,
      "Ġtransferencias": 7194,
      "Ġreconocida": 7195,
      "cimo": 7196,
      "Ġamenaz": 7197,
      "Ġderoga": 7198,
      "Ġcuyas": 7199,
      "Ġsalvaguar": 7200,
      "tamo": 7201,
      "Ġinspec": 7202,
      "Ġconcluir": 7203,
      "itan": 7204,
      "Ġforzos": 7205,
      "Ġcontengan": 7206,
      "aste": 7207,
      "Ġtenemos": 7208,
      "Ġterroristas": 7209,
      "Ġsometidos": 7210,
      "Ġtierras": 7211,
      "Ġfactor": 7212,
      "Ġfinca": 7213,
      "Ġnormativo": 7214,
      "ienta": 7215,
      "ĠCONTRA": 7216,
      "ĠVall": 7217,
      "ĠENTRE": 7218,
      "ĠNavar": 7219,
      "Ġeuropeos": 7220,
      "ĠMercado": 7221,
      "Ġlevan": 7222,
      "Ġabsolu": 7223,
      "Ġfra": 7224,
      "Ġcelebrar": 7225,
      "Ġequivalentes": 7226,
      "ĠÃ¡cido": 7227,
      "ĠAutonomÃŃa": 7228,
      "Ġacordado": 7229,
      "Ġaproximadamente": 7230,
      "ĠfÃ³rmula": 7231,
      "ĠFabricaciÃ³n": 7232,
      "Ġpresupuestarias": 7233,
      "Ġocupar": 7234,
      "grama": 7235,
      "XI": 7236,
      "Ġautoriza": 7237,
      "Ġdelincu": 7238,
      "%.": 7239,
      "Ġestaban": 7240,
      "amento": 7241,
      "Ġinformado": 7242,
      "Ġelaborado": 7243,
      "Ġdefecto": 7244,
      "Ġexplos": 7245,
      "ĠNUM": 7246,
      "tig": 7247,
      "tavo": 7248,
      "ĠoposiciÃ³n": 7249,
      "ĠâĪ": 7250,
      "ĠconcentraciÃ³n": 7251,
      "ĠCuadro": 7252,
      "III": 7253,
      "ĠSUPER": 7254,
      "ĠTesor": 7255,
      "Ġmunicipio": 7256,
      "Ġcomplementaria": 7257,
      "ĠpercepciÃ³n": 7258,
      "Ġconcreta": 7259,
      "ĠartÃŃs": 7260,
      "ĠEllo": 7261,
      "Ġencuentren": 7262,
      "ĠRecordando": 7263,
      "Ġvelar": 7264,
      "Ġ68": 7265,
      "ĠEjecuciÃ³n": 7266,
      "ĠadecuaciÃ³n": 7267,
      "Ġagricultura": 7268,
      "Ġentra": 7269,
      "Ġsucesivo": 7270,
      "ĠConsultiva": 7271,
      "ingÃ¼": 7272,
      "ive": 7273,
      "ĠcomitÃ©": 7274,
      "Ġdirigidas": 7275,
      "ĠGir": 7276,
      "Ġ(\"": 7277,
      "ĠFA": 7278,
      "Ġocasiones": 7279,
      "Ġclara": 7280,
      "Ġesfuerzo": 7281,
      "Ã³stico": 7282,
      "ĠmÃŃnimas": 7283,
      "lerancia": 7284,
      "ĠconsecuciÃ³n": 7285,
      "ĠDebe": 7286,
      "ĠCre": 7287,
      "inca": 7288,
      "Ġviaje": 7289,
      "aso": 7290,
      "zados": 7291,
      "Ġfues": 7292,
      "ĠOM": 7293,
      "inea": 7294,
      "Ġracional": 7295,
      "Ġdeclara": 7296,
      "ĠEnseÃ±": 7297,
      "ĠRequisitos": 7298,
      "Ġprogreso": 7299,
      "Ġcab": 7300,
      "Ġcuidado": 7301,
      "Ġcontinua": 7302,
      "han": 7303,
      "Ġterritoriales": 7304,
      "Ġpoderes": 7305,
      "Ġaloj": 7306,
      "ACIONAL": 7307,
      "Ġrespetar": 7308,
      "Ġemb": 7309,
      "ĠgeogrÃ¡fica": 7310,
      "ĠMINIS": 7311,
      "cÃ³": 7312,
      "agen": 7313,
      "Ġcorto": 7314,
      "ĠObjeto": 7315,
      "ut": 7316,
      "ĠLeÃ³n": 7317,
      "Ġbasado": 7318,
      "ĠmÃ©dica": 7319,
      "uesti": 7320,
      "Ġases": 7321,
      "teriales": 7322,
      "bernamental": 7323,
      "ĠParitaria": 7324,
      "proyecto": 7325,
      "ĠIslas": 7326,
      "ĠPal": 7327,
      "aza": 7328,
      "ĠTRABA": 7329,
      "ĠfusiÃ³n": 7330,
      "Ġoportunas": 7331,
      "Ġsemin": 7332,
      "Ġtenerse": 7333,
      "Ġecol": 7334,
      "Ã©tr": 7335,
      "ĠvÃŃn": 7336,
      "Ġquedar": 7337,
      "su": 7338,
      "Ġmagn": 7339,
      "ĠÃ©tn": 7340,
      "Ġrealmente": 7341,
      "ĠMediante": 7342,
      "Ġpreparar": 7343,
      "Ġvacantes": 7344,
      "osovo": 7345,
      "Ġisrael": 7346,
      "Ġconsejero": 7347,
      "Ġencomend": 7348,
      "one": 7349,
      "ĠResul": 7350,
      "Ġdio": 7351,
      "//": 7352,
      "ĠprescripciÃ³n": 7353,
      "Ġsolicitantes": 7354,
      "ĠAragÃ³n": 7355,
      "ĠcompaÃ±ÃŃa": 7356,
      "puer": 7357,
      "uelos": 7358,
      "Ġincidencia": 7359,
      "Ġviene": 7360,
      "Ġexistir": 7361,
      "Ġanormal": 7362,
      "ĠadoptÃ³": 7363,
      "rump": 7364,
      "tab": 7365,
      "ARIO": 7366,
      "cÃŃa": 7367,
      "ĠdomÃ©s": 7368,
      "âĢ¦âĢ¦": 7369,
      "Ġretirada": 7370,
      "Ġdefinitivamente": 7371,
      "we": 7372,
      "Ġtenor": 7373,
      "sta": 7374,
      "Ġreglamentos": 7375,
      "onesia": 7376,
      "Ġdie": 7377,
      "Ġautorizar": 7378,
      "ONOMI": 7379,
      "ĠinstrucciÃ³n": 7380,
      "Ġrestaur": 7381,
      "Ġ89": 7382,
      "ĠOC": 7383,
      "Ġfen": 7384,
      "ĠrenovaciÃ³n": 7385,
      "como": 7386,
      "Ġcentrales": 7387,
      "ĠSobre": 7388,
      "ĠespecÃŃficamente": 7389,
      "ĠPos": 7390,
      "aldad": 7391,
      "Ãºr": 7392,
      "Ġusuario": 7393,
      "ĠFR": 7394,
      "Ġobjetos": 7395,
      "Ġeso": 7396,
      "Ġreciente": 7397,
      "ĠCiencia": 7398,
      "ĠSuecia": 7399,
      "Ġdecidir": 7400,
      "Ġ101": 7401,
      "Ġleche": 7402,
      "Ġquisi": 7403,
      "ĠKosovo": 7404,
      "Ġrecibidas": 7405,
      "ĠSudÃ¡n": 7406,
      "Ġcostos": 7407,
      "are": 7408,
      "ĠCategor": 7409,
      "tativos": 7410,
      "Ġbon": 7411,
      "ZO": 7412,
      "Ġimagen": 7413,
      "ĠcorrecciÃ³n": 7414,
      "ĠBi": 7415,
      "ĠReuniÃ³n": 7416,
      "Ġcifra": 7417,
      "Ġextremo": 7418,
      "VER": 7419,
      "EM": 7420,
      "Ġencontr": 7421,
      "inclu": 7422,
      "ĠJue": 7423,
      "ĠAhora": 7424,
      "Ġabar": 7425,
      "ĠÃģmbito": 7426,
      "Ġmejoras": 7427,
      "ĠmÃ³dulo": 7428,
      "ĠPD": 7429,
      "ĠmÃ³dulos": 7430,
      "Ġmadre": 7431,
      "ĠSubcom": 7432,
      "Ġcontingentes": 7433,
      "Ġirreg": 7434,
      "ĠTim": 7435,
      "Ġevidente": 7436,
      "ĠHay": 7437,
      "ĠlimitaciÃ³n": 7438,
      "Ġalmac": 7439,
      "lesc": 7440,
      "Ġedificaciones": 7441,
      "Ġerrad": 7442,
      "1991": 7443,
      "cada": 7444,
      "ĠGre": 7445,
      "Ġradi": 7446,
      "Ġconviene": 7447,
      "ĠhÃ¡bil": 7448,
      "Îµ": 7449,
      "ĠTÃ©cnicas": 7450,
      "ard": 7451,
      "Ġdictar": 7452,
      "Ġfichero": 7453,
      "Ġquinto": 7454,
      "ttp": 7455,
      "Ġder": 7456,
      "Ġmet": 7457,
      "Ġptas": 7458,
      "uwa": 7459,
      "Ġdemocracia": 7460,
      "Ġhospital": 7461,
      "Ġpertenecientes": 7462,
      "Ġestando": 7463,
      "Ġdictado": 7464,
      "tom": 7465,
      "Ġafectar": 7466,
      "ĠMol": 7467,
      "Ġ71": 7468,
      "Ġcreado": 7469,
      "ICOS": 7470,
      "Ġsensi": 7471,
      "Ġremitir": 7472,
      "Ġautorizadas": 7473,
      "vita": 7474,
      "Ġtuvier": 7475,
      "Ġcombustible": 7476,
      "iso": 7477,
      "CTAD": 7478,
      "Ġrepe": 7479,
      "ites": 7480,
      "Ġinciso": 7481,
      "Ġeuro": 7482,
      "ĠDependencia": 7483,
      "ĠseÃ±alados": 7484,
      "ĠCOMISIÃĵN": 7485,
      "Ġequil": 7486,
      "Ġsanitario": 7487,
      "Ġdiversidad": 7488,
      "ĠOrganismos": 7489,
      "Ġquier": 7490,
      "Ġacuerda": 7491,
      "ĠAnÃ¡lisis": 7492,
      "iga": 7493,
      "ĠEmpresas": 7494,
      "Ġminas": 7495,
      "ement": 7496,
      "Ġpal": 7497,
      "Ġ69": 7498,
      "Ġmando": 7499,
      "organ": 7500,
      "Ð°": 7501,
      "Ġfases": 7502,
      "ĠacordÃ³": 7503,
      "Ġanalizar": 7504,
      "Ġsometida": 7505,
      "Ġimplica": 7506,
      "Ġquincu": 7507,
      "ĠNoruega": 7508,
      "land": 7509,
      "orado": 7510,
      "ĠSL": 7511,
      "1988": 7512,
      "Ġpagar": 7513,
      "Ġfallecimiento": 7514,
      "UU": 7515,
      "IOR": 7516,
      "junto": 7517,
      "Ġcumpla": 7518,
      "TIDAD": 7519,
      "ĠLIS": 7520,
      "Ġaspecto": 7521,
      "Ġponder": 7522,
      "Ġforestales": 7523,
      "ĠCir": 7524,
      "://": 7525,
      "Ġdeud": 7526,
      "Ġlan": 7527,
      "ARIOS": 7528,
      "Ġvuelo": 7529,
      "Ġprecisa": 7530,
      "viso": 7531,
      "Ġcorrientes": 7532,
      "ĠinnovaciÃ³n": 7533,
      "Ġcasi": 7534,
      "tÃ¡ndose": 7535,
      "ĠEEE": 7536,
      "ezcan": 7537,
      "Ġbec": 7538,
      "ĠSel": 7539,
      "Ġsindical": 7540,
      "ĠpequeÃ±os": 7541,
      "Ġanualmente": 7542,
      "ĠViv": 7543,
      "FA": 7544,
      "Ġabierto": 7545,
      "Ġadopten": 7546,
      "ĠActa": 7547,
      "Ġdefinitivo": 7548,
      "ĠPalestin": 7549,
      "ĠREF": 7550,
      "ĠDos": 7551,
      "ĠprevÃ©n": 7552,
      "Ġmejores": 7553,
      "ĠCorrespon": 7554,
      "ĠCualquier": 7555,
      "Ġaudio": 7556,
      "Ġperfil": 7557,
      "ĠONU": 7558,
      "breg": 7559,
      "ĠclÃ¡usula": 7560,
      "ĠAUT": 7561,
      "clas": 7562,
      "Ġverda": 7563,
      "Ġfijados": 7564,
      "GU": 7565,
      "lim": 7566,
      "ilaciÃ³n": 7567,
      "Ġentes": 7568,
      "Ġdiagn": 7569,
      "Ã³nica": 7570,
      "Ġlaboratorio": 7571,
      "ĠreposiciÃ³n": 7572,
      "sos": 7573,
      "ĠCrÃ©ditos": 7574,
      "ĠÃŃndice": 7575,
      "Ġatra": 7576,
      "Ġartes": 7577,
      "ĠllevarÃ¡": 7578,
      "celaciÃ³n": 7579,
      "ITULO": 7580,
      "ĠmediaciÃ³n": 7581,
      "Ġnecesariamente": 7582,
      "Ġcontinuar": 7583,
      "Ġlegitim": 7584,
      "Ġsuficientemente": 7585,
      "ĠidÃ©n": 7586,
      "ĠprÃ©stamo": 7587,
      "dado": 7588,
      "IENTE": 7589,
      "ĠAlgun": 7590,
      "ĠSec": 7591,
      "Ġ76": 7592,
      "Ġbienestar": 7593,
      "ĠDon": 7594,
      "Ġseno": 7595,
      "Ġaca": 7596,
      "ĠAudiencia": 7597,
      "viaciÃ³n": 7598,
      "ĠRespon": 7599,
      "Ġhinca": 7600,
      "Ġhipo": 7601,
      "Ġedificio": 7602,
      "ĠRA": 7603,
      "asco": 7604,
      "ĠArm": 7605,
      "Ġ96": 7606,
      "Ġtraslad": 7607,
      "ĠdotaciÃ³n": 7608,
      "dena": 7609,
      "Ġfren": 7610,
      "ĠMEN": 7611,
      "ĠhincapiÃ©": 7612,
      "Ġexpon": 7613,
      "Ġvinculadas": 7614,
      "ĠâĪĴ": 7615,
      "Ġmaquinaria": 7616,
      "ĠquincuagÃ©simo": 7617,
      "Ġcumplim": 7618,
      "ĠElec": 7619,
      "Ġbruto": 7620,
      "Ġjusti": 7621,
      "plaz": 7622,
      "Ġmarca": 7623,
      "ĠPromociÃ³n": 7624,
      "ĠSAL": 7625,
      "Ġdestinada": 7626,
      "Ġ67": 7627,
      "calidad": 7628,
      "tistas": 7629,
      "GEN": 7630,
      "jus": 7631,
      "Ġseguido": 7632,
      "Ġposterioridad": 7633,
      "Ġhumanitario": 7634,
      "Ġcargas": 7635,
      "partida": 7636,
      "ĠUtil": 7637,
      "BLES": 7638,
      "ĠNC": 7639,
      "ĠfÃ¡cil": 7640,
      "entalmente": 7641,
      "Ġpresenten": 7642,
      "Ġofertas": 7643,
      "Ġbene": 7644,
      "Ġreconocidos": 7645,
      "ĠVigil": 7646,
      "financi": 7647,
      "Ġsatisfacer": 7648,
      "ĠConven": 7649,
      "taÃ±a": 7650,
      "Ġcontemplado": 7651,
      "ĠPLAN": 7652,
      "400": 7653,
      "Ġcontribuyentes": 7654,
      "ĠNavarra": 7655,
      "osten": 7656,
      "Ġparlam": 7657,
      "Ġreducido": 7658,
      "Ġefectivos": 7659,
      "ventud": 7660,
      "Ġcomportamiento": 7661,
      "quÃŃ": 7662,
      "ĠautÃ³nomos": 7663,
      "Ġacreditado": 7664,
      "Ġotorgamiento": 7665,
      "eos": 7666,
      "Ġalzada": 7667,
      "blio": 7668,
      "Ġtransmi": 7669,
      "ĠVd": 7670,
      "Ġeconom": 7671,
      "len": 7672,
      "BR": 7673,
      "Ġmano": 7674,
      "ĠremuneraciÃ³n": 7675,
      "fecciÃ³n": 7676,
      "ĠTRLIS": 7677,
      "Ġjefe": 7678,
      "ĠFORMA": 7679,
      "ĠExamen": 7680,
      "unya": 7681,
      "Ġcometido": 7682,
      "ĠfÃ¡brica": 7683,
      "Ġnada": 7684,
      "ĠGOBIER": 7685,
      "Ġautorizada": 7686,
      "ĠApoyo": 7687,
      "Ġnuestras": 7688,
      "Ġoperador": 7689,
      "VI": 7690,
      "Ġdesempleo": 7691,
      "Ġpositivo": 7692,
      "Ġefectuarse": 7693,
      "ĠcomparaciÃ³n": 7694,
      "dÃŃan": 7695,
      "001": 7696,
      "biliario": 7697,
      "ĠCORRESPONDI": 7698,
      "ĠgeneraciÃ³n": 7699,
      "Ġajustan": 7700,
      "iro": 7701,
      "ĠZona": 7702,
      "Ġsufridos": 7703,
      "Ġurgente": 7704,
      "Ġinterpuesto": 7705,
      "ung": 7706,
      "Ġcontratante": 7707,
      "ĠSolici": 7708,
      "Ã²": 7709,
      "ĠGuinea": 7710,
      "1987": 7711,
      "Ġtablas": 7712,
      "Ġcobr": 7713,
      "ĠCuarto": 7714,
      "Ġ120": 7715,
      "Ġcorre": 7716,
      "bulo": 7717,
      "inamarca": 7718,
      "Ġrespuestas": 7719,
      "Ġreguladoras": 7720,
      "Ġpregunta": 7721,
      "Ġoriginarios": 7722,
      "Ġnueve": 7723,
      "estral": 7724,
      "Ġrealizando": 7725,
      "Ġafectan": 7726,
      "ĠSegu": 7727,
      "Ġmesa": 7728,
      "Ġrequerida": 7729,
      "Ġresid": 7730,
      "Ġdejar": 7731,
      "ĠÃŃntegr": 7732,
      "Ġdelegados": 7733,
      "Ġexentas": 7734,
      "ĠCÃ¡mara": 7735,
      "ĠBale": 7736,
      "ĠIntervenciÃ³n": 7737,
      "Ġiniciar": 7738,
      "Ġenunci": 7739,
      "ĠAt": 7740,
      "ierÃŃa": 7741,
      "ĠSerÃ¡": 7742,
      "ĠobstÃ¡culos": 7743,
      "ĠCatalunya": 7744,
      "Ġequilibrio": 7745,
      "Ġparcela": 7746,
      "Ġquisiera": 7747,
      "Ġaplican": 7748,
      "ctur": 7749,
      "Ġlogro": 7750,
      "ĠcÃ³nyuge": 7751,
      "Ġintergu": 7752,
      "Ġexceso": 7753,
      "300": 7754,
      "Ġincorporar": 7755,
      "cribir": 7756,
      "Ġfinanciar": 7757,
      "trÃ³leo": 7758,
      "ĠEncar": 7759,
      "Ġdesglos": 7760,
      "Ġjustificar": 7761,
      "ĠPropi": 7762,
      "ĠTE": 7763,
      "Ġcomprendidos": 7764,
      "Ġportu": 7765,
      "Ġtortura": 7766,
      "Ġexisti": 7767,
      "ĠTom": 7768,
      "unca": 7769,
      "ĠValenci": 7770,
      "ity": 7771,
      "ile": 7772,
      "Ġaceptar": 7773,
      "greso": 7774,
      "ĠcÃ³digos": 7775,
      "ĠpodÃŃa": 7776,
      "ĠIgualmente": 7777,
      "fav": 7778,
      "ĠazÃºcar": 7779,
      "Ġpermanentes": 7780,
      "Ġcosa": 7781,
      "aje": 7782,
      "Ġdestinatarios": 7783,
      "Ġpreventiva": 7784,
      "ezca": 7785,
      "ĠdemocrÃ¡": 7786,
      "IENTES": 7787,
      "ĠmediciÃ³n": 7788,
      "Ġverific": 7789,
      "Ġofrece": 7790,
      "Ġsubreg": 7791,
      "ĠratificaciÃ³n": 7792,
      "1984": 7793,
      "No": 7794,
      "ĠGra": 7795,
      "Ġenla": 7796,
      "GRA": 7797,
      "Ġcamino": 7798,
      "ĠCRE": 7799,
      "Ġpolici": 7800,
      "ĠprofesiÃ³n": 7801,
      "ĠtrÃ¡mites": 7802,
      "Ġregres": 7803,
      "Ġdivi": 7804,
      "Ġsolicitada": 7805,
      "Ġconsenso": 7806,
      "ĠautÃ³noma": 7807,
      "Ġ97": 7808,
      "ĠclimÃ¡tico": 7809,
      "ĠGirona": 7810,
      "Ġintra": 7811,
      "rabes": 7812,
      "ation": 7813,
      "Ġpobres": 7814,
      "ins": 7815,
      "Ġsemil": 7816,
      "Ġcomienzo": 7817,
      "Ġnosotros": 7818,
      "Ġdesignado": 7819,
      "Ġexistencias": 7820,
      "ĠSierra": 7821,
      "cran": 7822,
      "Por": 7823,
      "idados": 7824,
      "ĠCONF": 7825,
      "erar": 7826,
      "Ġintegral": 7827,
      "Di": 7828,
      "Ġsober": 7829,
      "ĠIVA": 7830,
      "Ġpalestino": 7831,
      "enten": 7832,
      "ĠFomento": 7833,
      "grÃ¡ficas": 7834,
      "ectual": 7835,
      "Ġtama": 7836,
      "ivencia": 7837,
      "gular": 7838,
      "ĠTÃįTULO": 7839,
      "Ġconducto": 7840,
      "VO": 7841,
      "Ġdumping": 7842,
      "ĠautonÃ³mica": 7843,
      "Ġaduana": 7844,
      "ĠTA": 7845,
      "Ġpens": 7846,
      "trocin": 7847,
      "uerda": 7848,
      "Ġpedir": 7849,
      "Ġsustituido": 7850,
      "Ġpreceptivo": 7851,
      "OM": 7852,
      "Ġhigiene": 7853,
      "Ġcur": 7854,
      "Ġcontrolar": 7855,
      "ĠINFORM": 7856,
      "Ġidiomas": 7857,
      "Ġ(Â«": 7858,
      "ĠpretensiÃ³n": 7859,
      "Ġhabitantes": 7860,
      "Ġestatuto": 7861,
      "cientos": 7862,
      "ĠInstal": 7863,
      "igo": 7864,
      "ARR": 7865,
      "1989": 7866,
      "ĠEconÃ³micos": 7867,
      "Ġparecer": 7868,
      "Ġcobro": 7869,
      "CIALES": 7870,
      "Ġmadera": 7871,
      "Ġ81": 7872,
      "rÃ¡c": 7873,
      "iciones": 7874,
      "Ġ88": 7875,
      "ii": 7876,
      "ical": 7877,
      "ĠquÃŃmicos": 7878,
      "Ġhabilit": 7879,
      "Ġnove": 7880,
      "cusiones": 7881,
      "ĠLes": 7882,
      "ĠBrasil": 7883,
      "ĠFJ": 7884,
      "Ġespecialidad": 7885,
      "amo": 7886,
      "Ġano": 7887,
      "Ġsuscrito": 7888,
      "Ġpositiva": 7889,
      "ĠCuba": 7890,
      "Ġreglamentarias": 7891,
      "Ġsaldo": 7892,
      "crania": 7893,
      "ÏĤ": 7894,
      "ĠLle": 7895,
      "terÃŃa": 7896,
      "Ġ139": 7897,
      "Ġexpresado": 7898,
      "Ġpaciente": 7899,
      "Ġrestr": 7900,
      "ĠIrÃ¡n": 7901,
      "ĠApar": 7902,
      "Ġsimple": 7903,
      "ĠTarrag": 7904,
      "ĠCalidad": 7905,
      "xem": 7906,
      "Ġtradicionales": 7907,
      "ĠTari": 7908,
      "ĠFUNCION": 7909,
      "titudes": 7910,
      "Ã¡mbulo": 7911,
      "Ġcontienen": 7912,
      "Ġvuel": 7913,
      "Ġentenderse": 7914,
      "Ġformula": 7915,
      "Ġapel": 7916,
      "Ã¡cito": 7917,
      "Ġconstituida": 7918,
      "ECES": 7919,
      "Ġbe": 7920,
      "Ġencuentre": 7921,
      "Ġ79": 7922,
      "Ġciertas": 7923,
      "ĠVIG": 7924,
      "ĠPUE": 7925,
      "Ġ74": 7926,
      "Ġvisto": 7927,
      "ĠextensiÃ³n": 7928,
      "Ġdesfav": 7929,
      "Ġalcanzado": 7930,
      "ROB": 7931,
      "ĠCAN": 7932,
      "Ġevac": 7933,
      "Ġdeterminen": 7934,
      "Ġindemnizaciones": 7935,
      "Ġbrin": 7936,
      "ĠFinalmente": 7937,
      "tabria": 7938,
      "Ġpermanencia": 7939,
      "ĠDISPOSICIONES": 7940,
      "ĠChi": 7941,
      "Ã¡frica": 7942,
      "ĠmÃ¡ximos": 7943,
      "Ġevaluaciones": 7944,
      "tualidad": 7945,
      "bados": 7946,
      "Ġforman": 7947,
      "ĠEstrateg": 7948,
      "ĠBre": 7949,
      "Ġsusceptibles": 7950,
      "ÃŃtulos": 7951,
      "ĠmetÃ¡l": 7952,
      "Ġatribuye": 7953,
      "zÃ³": 7954,
      "Ġcuanti": 7955,
      "Ġpenales": 7956,
      "**": 7957,
      "ĠAustria": 7958,
      "Ġcat": 7959,
      "Ġtabla": 7960,
      "Ġreformas": 7961,
      "Ġpodemos": 7962,
      "Ġutiliza": 7963,
      "ome": 7964,
      "Ġdeducir": 7965,
      "Ġadoptada": 7966,
      "Ġinferiores": 7967,
      "Ġestudiantes": 7968,
      "grafe": 7969,
      "Ġencontrar": 7970,
      "Ġdebates": 7971,
      "Ã±ana": 7972,
      "Ġjustificada": 7973,
      "ĠDinamarca": 7974,
      "Ïĥ": 7975,
      "Ġcontrovers": 7976,
      "ĠseguirÃ¡": 7977,
      "Ġiii": 7978,
      "Ġpersonalidad": 7979,
      "Ġtarde": 7980,
      "IVER": 7981,
      "Ġutilizan": 7982,
      "ĠCro": 7983,
      "TION": 7984,
      "ĠForal": 7985,
      "Ġindispensable": 7986,
      "Ġdefinidos": 7987,
      "ĠmÃ³vil": 7988,
      "Ġirregular": 7989,
      "ĠIsl": 7990,
      "Ġelectoral": 7991,
      "ĠIdentificar": 7992,
      "ĠcomunicarÃ¡": 7993,
      "ĠQueda": 7994,
      "ĠPLA": 7995,
      "crim": 7996,
      "dores": 7997,
      "Ġconsideren": 7998,
      "ĠGrado": 7999,
      "ĠEntrada": 8000,
      "ĠArg": 8001,
      "ĠAnti": 8002,
      "for": 8003,
      "Ġidentificar": 8004,
      "Ġpror": 8005,
      "DIGITOÂº": 8006,
      "ĠplÃ¡s": 8007,
      "TERIO": 8008,
      "ĠPOL": 8009,
      "ĠPARTE": 8010,
      "ck": 8011,
      "ĠDescripciÃ³n": 8012,
      "Ġasim": 8013,
      "Ġciertos": 8014,
      "Ġrecip": 8015,
      "ĠadmisiÃ³n": 8016,
      "Ġderivada": 8017,
      "ULOS": 8018,
      "ĠSubvenciÃ³n": 8019,
      "ĠInc": 8020,
      "ficiencias": 8021,
      "Ġcontrapres": 8022,
      "Ġproductor": 8023,
      "Ġaeronaves": 8024,
      "ĠGOBIERNO": 8025,
      "Ġcompensa": 8026,
      "Ġreferidos": 8027,
      "Ġaduanero": 8028,
      "ĠCari": 8029,
      "ĠTeniendo": 8030,
      "LACION": 8031,
      "TUD": 8032,
      "ĠBal": 8033,
      "Ġseparado": 8034,
      "ĠformulÃ³": 8035,
      "ĠInici": 8036,
      "Ġacel": 8037,
      "redi": 8038,
      "ĠestableciÃ³": 8039,
      "ĠIdentificaciÃ³n": 8040,
      "amentos": 8041,
      "pÃŃgrafe": 8042,
      "Ġganader": 8043,
      "ĠFal": 8044,
      "Ġinicialmente": 8045,
      "Ġhabida": 8046,
      "Ġutilicen": 8047,
      "ĠConsejero": 8048,
      "Ġadquisiciones": 8049,
      "ĠESTABLECI": 8050,
      "Ġreproduc": 8051,
      "Ġproducirse": 8052,
      "Ġobr": 8053,
      "Ġavances": 8054,
      "Ġresumen": 8055,
      "ĠAz": 8056,
      "Ġpotestad": 8057,
      "ĠGastos": 8058,
      "Ġexigencia": 8059,
      "Ġacab": 8060,
      "ĠJU": 8061,
      "Ġvulnerables": 8062,
      "plÃ¡cito": 8063,
      "iernes": 8064,
      "ĠSch": 8065,
      "ĠbeneplÃ¡cito": 8066,
      "Ġestimar": 8067,
      "Ġurbano": 8068,
      "ĠOriente": 8069,
      "Ġlimitada": 8070,
      "idaridad": 8071,
      "Ġ86": 8072,
      "lin": 8073,
      "pias": 8074,
      "Ġencom": 8075,
      "jan": 8076,
      "Ġfronteras": 8077,
      "Ġexcepcionales": 8078,
      "Ġmantiene": 8079,
      "1980": 8080,
      "ĠAco": 8081,
      "para": 8082,
      "ĠFundaciÃ³n": 8083,
      "ĠSede": 8084,
      "ĠTarragona": 8085,
      "Ġexpropi": 8086,
      "Ġexcepciones": 8087,
      "Ġprodujo": 8088,
      "ĠOS": 8089,
      "ĠCantabria": 8090,
      "undiales": 8091,
      "Ġsurg": 8092,
      "fronter": 8093,
      "ĠBol": 8094,
      "Ã©lgica": 8095,
      "Ġ________________": 8096,
      "ĠMÃ³d": 8097,
      "ĠNUMERO": 8098,
      "ĠSen": 8099,
      "ĠperiÃ³dico": 8100,
      "Ġleves": 8101,
      "ĠVe": 8102,
      "ĠPalestina": 8103,
      "ĠsupresiÃ³n": 8104,
      "Ġsiga": 8105,
      "Ġsem": 8106,
      "ni": 8107,
      "ĠConsorcio": 8108,
      "ĠQU": 8109,
      "ĠBosnia": 8110,
      "Ġbalance": 8111,
      "ACIÃĵN": 8112,
      "ĠinformÃ¡ticos": 8113,
      "ĠEstadÃŃstica": 8114,
      "Ġconstituido": 8115,
      "uch": 8116,
      "Ġconfidencial": 8117,
      "Ġformar": 8118,
      "ĠRuman": 8119,
      "Ġdefinido": 8120,
      "Ġvencimiento": 8121,
      "Ġefectuada": 8122,
      "entina": 8123,
      "Ġinval": 8124,
      "TERMIN": 8125,
      "Ġrepercusiones": 8126,
      "ĠminorÃŃas": 8127,
      "ĠResponsa": 8128,
      "ĠUcrania": 8129,
      "ĠMED": 8130,
      "Ġmoneda": 8131,
      "Ġsueldo": 8132,
      "Ġpermiten": 8133,
      "Ġfel": 8134,
      "ĠSom": 8135,
      "Ã´": 8136,
      "Ġpag": 8137,
      "Ġintervenciones": 8138,
      "Ġinmueble": 8139,
      "Ġferrovi": 8140,
      "Ġsitio": 8141,
      "ĠMÃ©xico": 8142,
      "Ġpromul": 8143,
      "Ġnorte": 8144,
      "Ġrecientemente": 8145,
      "ĠFamil": 8146,
      "Ġbom": 8147,
      "Ġcarrera": 8148,
      "ĠLÃŃbano": 8149,
      "Ġparticipa": 8150,
      "Ġhubiere": 8151,
      "pr": 8152,
      "Ġacreditar": 8153,
      "Ġlibres": 8154,
      "ĠPrimer": 8155,
      "ĠcelebrÃ³": 8156,
      "Ġinsta": 8157,
      "Ġpreparado": 8158,
      "ĠEstudios": 8159,
      "ĠÃ¡r": 8160,
      "Ġtro": 8161,
      "uncias": 8162,
      "Ġcuantas": 8163,
      "Ġadolesc": 8164,
      "ĠprÃ³rroga": 8165,
      "Ġinfancia": 8166,
      "ĠÃ¡n": 8167,
      "ĠISO": 8168,
      "Ġcompuesto": 8169,
      "Ġvinculados": 8170,
      "igra": 8171,
      "Ġdipu": 8172,
      "ĠÃī": 8173,
      "Ġprovisionales": 8174,
      "Ġformato": 8175,
      "Ġcere": 8176,
      "blecer": 8177,
      "ĠCER": 8178,
      "Ġlibros": 8179,
      "ĠPolonia": 8180,
      "Ġincrement": 8181,
      "ĠAustralia": 8182,
      "Ġsuministros": 8183,
      "anes": 8184,
      "Ġsalarios": 8185,
      "Ġencargados": 8186,
      "Ġaudiovis": 8187,
      "CR": 8188,
      "Ġpresten": 8189,
      "Ġcultivo": 8190,
      "Ġplata": 8191,
      "ĠDocumentaciÃ³n": 8192,
      "Ġautores": 8193,
      "ĠValores": 8194,
      "Ġtotales": 8195,
      "ĠNe": 8196,
      "Ġnunca": 8197,
      "ĠConsultivo": 8198,
      "Ġprever": 8199,
      "Ġrestring": 8200,
      "Ġdenominado": 8201,
      "ĠÃģrabe": 8202,
      "ĠGalicia": 8203,
      "Ġinstru": 8204,
      "Ġnoctur": 8205,
      "IBU": 8206,
      "-(": 8207,
      "Ã©rcito": 8208,
      "ĠNatural": 8209,
      "Ġbasa": 8210,
      "Ġreac": 8211,
      "ĠcuÃ¡l": 8212,
      "ĠOMITIDA": 8213,
      "ĠtamaÃ±o": 8214,
      "OLU": 8215,
      "VES": 8216,
      "Ġopciones": 8217,
      "Ġcorr": 8218,
      "Ġimpuestas": 8219,
      "Ġbordo": 8220,
      "ples": 8221,
      "Ġinstructor": 8222,
      "ĠprÃ¡ctico": 8223,
      "JA": 8224,
      "TRUC": 8225,
      "Ġeje": 8226,
      "ĠUNCTAD": 8227,
      "Ġalumno": 8228,
      "Ġasignado": 8229,
      "Ġexceder": 8230,
      "iena": 8231,
      "Ġerrores": 8232,
      "ĠSEGUR": 8233,
      "600": 8234,
      "Ġturnos": 8235,
      "Ġreguladas": 8236,
      "%,": 8237,
      "Ġinsp": 8238,
      "ÃŃamos": 8239,
      "Ġtrimestre": 8240,
      "ĠnavegaciÃ³n": 8241,
      "Ġquiero": 8242,
      "cida": 8243,
      "ĠOccidental": 8244,
      "Ġabsoluta": 8245,
      "Ġtributarias": 8246,
      "ĠCuesti": 8247,
      "ĠSEGUNDO": 8248,
      "ĠBu": 8249,
      "ĠautÃ³nomas": 8250,
      "ĠcientÃŃfica": 8251,
      "ĠIntegr": 8252,
      "TIVAS": 8253,
      "ĠConta": 8254,
      "Ġtarje": 8255,
      "Ġdependientes": 8256,
      "Ãºcl": 8257,
      "egovina": 8258,
      "ĠComisario": 8259,
      "don": 8260,
      "ĠLleida": 8261,
      "emen": 8262,
      "unidad": 8263,
      "gat": 8264,
      "ĠAUTORI": 8265,
      "Ġtransfronter": 8266,
      "ĠAfricana": 8267,
      "ĠrectificaciÃ³n": 8268,
      "Ġce": 8269,
      "Ġacontecimientos": 8270,
      "ĠLim": 8271,
      "Ġadquirente": 8272,
      "ĠCARA": 8273,
      "Ġproyectada": 8274,
      "ĠTit": 8275,
      "cÃ©s": 8276,
      "idaciones": 8277,
      "Ġyo": 8278,
      "ĠCAL": 8279,
      "Ġ82": 8280,
      "ĠMATERI": 8281,
      "ĠPROCED": 8282,
      "Ġindicada": 8283,
      "Ġreferidas": 8284,
      "grad": 8285,
      "tÃ©n": 8286,
      "tero": 8287,
      "Ãºsque": 8288,
      "Ġsuger": 8289,
      "ĠCUAL": 8290,
      "gip": 8291,
      "deo": 8292,
      "Ġocur": 8293,
      "Ġprevias": 8294,
      "Ġconsumidor": 8295,
      "Ġpromue": 8296,
      "Ġdisponen": 8297,
      "Ġdetallada": 8298,
      "Ġcometidos": 8299,
      "ĠFinlandia": 8300,
      "ulgaria": 8301,
      "stur": 8302,
      "ĠVic": 8303,
      "ĠÃºtiles": 8304,
      "Ġmundiales": 8305,
      "istir": 8306,
      "ĠenvÃŃo": 8307,
      "tol": 8308,
      "Ġusted": 8309,
      "Ġestipul": 8310,
      "ĠfÃŃsico": 8311,
      "ORES": 8312,
      "izon": 8313,
      "tÃ¡menes": 8314,
      "ĠPDF": 8315,
      "ĠDETERMIN": 8316,
      "Ġ78": 8317,
      "Ġexpresar": 8318,
      "ĠEmbaj": 8319,
      "Ġdestacar": 8320,
      "Ġtemporales": 8321,
      "Ġ107": 8322,
      "Ġexportadores": 8323,
      "Ġfacturas": 8324,
      "ĠCONSID": 8325,
      "Ġcoherencia": 8326,
      "zegovina": 8327,
      "ificada": 8328,
      "ĠtelevisiÃ³n": 8329,
      "Ġdisfrutar": 8330,
      "iles": 8331,
      "ĠAÃ±o": 8332,
      "Ġadquiridos": 8333,
      "grÃ¡fico": 8334,
      "Ġlimita": 8335,
      "Ġproductividad": 8336,
      "Ġmedioambiental": 8337,
      "2016": 8338,
      "Ġnominal": 8339,
      "Ġpalestinos": 8340,
      "Ġurbanismo": 8341,
      "Ġindicadas": 8342,
      "ĠPARTI": 8343,
      "ĠIR": 8344,
      "Ġtransmitir": 8345,
      "ĠIPC": 8346,
      "Î·": 8347,
      "Ġsindica": 8348,
      "Ġestructurales": 8349,
      "etales": 8350,
      "Ġobligada": 8351,
      "Ġsuplem": 8352,
      "ĠCaribe": 8353,
      "ĠDOS": 8354,
      "Ġcarbono": 8355,
      "lamiento": 8356,
      "ĠGAS": 8357,
      "cismo": 8358,
      "Ġprescripciones": 8359,
      "ĠCUANDO": 8360,
      "Ġadecuadamente": 8361,
      "Ġrelacionada": 8362,
      "Ġasigna": 8363,
      "ĠJosÃ©": 8364,
      "Ġclases": 8365,
      "Ġeventual": 8366,
      "Ġresuelto": 8367,
      "Ġincluya": 8368,
      "Ġdesaf": 8369,
      "Ġformulado": 8370,
      "DAS": 8371,
      "Ġadopte": 8372,
      "Ġelevado": 8373,
      "Ġenjuici": 8374,
      "ĠSosten": 8375,
      "Ġ83": 8376,
      "Ġdesestima": 8377,
      "uwait": 8378,
      "ĠMINISTERIO": 8379,
      "Ġina": 8380,
      "ĠMur": 8381,
      "Ġrecordar": 8382,
      "Ġresultantes": 8383,
      "ĠCaracter": 8384,
      "ĠIndonesia": 8385,
      "Ġpreserv": 8386,
      "izable": 8387,
      "Ġcorreg": 8388,
      "ĠVol": 8389,
      "ĠdetecciÃ³n": 8390,
      "ĠVil": 8391,
      "Ġadquirir": 8392,
      "ĠNiÃ±o": 8393,
      "Ġpare": 8394,
      "ĠMel": 8395,
      "quia": 8396,
      "Ġindicaciones": 8397,
      "Ġturismo": 8398,
      "Ġfinaliz": 8399,
      "ĠFundam": 8400,
      "Ġsancionador": 8401,
      "AP": 8402,
      "Ġnoven": 8403,
      "ĠTercera": 8404,
      "Ġproponer": 8405,
      "Ġmatric": 8406,
      "ĠBienes": 8407,
      "IRPF": 8408,
      "Ġdevengo": 8409,
      "iencias": 8410,
      "ĠTÃ©cnicos": 8411,
      "Ġestablecerse": 8412,
      "Ġmag": 8413,
      "ĠSubcomisiÃ³n": 8414,
      "ĠTEC": 8415,
      "Ġconcedido": 8416,
      "Ġprestado": 8417,
      "contra": 8418,
      "Ġatribuidas": 8419,
      "RAS": 8420,
      "fen": 8421,
      "ĠdepÃ³sitos": 8422,
      "ĠmatrÃŃcula": 8423,
      "Ġafili": 8424,
      "Ġcontemplada": 8425,
      "Ġutilizada": 8426,
      "Ġvid": 8427,
      "Ġ220": 8428,
      "Ġinformaciones": 8429,
      "Ġenaj": 8430,
      "iegue": 8431,
      "Ġestrecha": 8432,
      "Ġ--": 8433,
      "ecido": 8434,
      "Ġefectividad": 8435,
      "Ġcontrad": 8436,
      "Ġpreguntas": 8437,
      "Ġconec": 8438,
      "ĠNECES": 8439,
      "TRIBU": 8440,
      "Ġmensuales": 8441,
      "ĠpetrÃ³leo": 8442,
      "rafo": 8443,
      "ht": 8444,
      "ĠDepor": 8445,
      "Ġnegocios": 8446,
      "Ġjuz": 8447,
      "Ġpromotor": 8448,
      "drÃŃa": 8449,
      "Ġquer": 8450,
      "ĠLocales": 8451,
      "ĠDEF": 8452,
      "Ġrequerimiento": 8453,
      "Ġexcepcional": 8454,
      "CTER": 8455,
      "www": 8456,
      "udades": 8457,
      "yl": 8458,
      "Ġrepercu": 8459,
      "Ġimpul": 8460,
      "ĠASI": 8461,
      "tela": 8462,
      "Ãºsqueda": 8463,
      "Ġdependencias": 8464,
      "ĠmaÃ±ana": 8465,
      "ced": 8466,
      "Ġinnov": 8467,
      "ĠLuxem": 8468,
      "tegro": 8469,
      "ĠChipre": 8470,
      "Ġpreparados": 8471,
      "ĠAyud": 8472,
      "Ġlectura": 8473,
      "Ġdign": 8474,
      "Ġoportuna": 8475,
      "Ġoptar": 8476,
      "ĠBAS": 8477,
      "Ġcircu": 8478,
      "tegra": 8479,
      "ĠadoptarÃ¡n": 8480,
      "Ġtextiles": 8481,
      "Ġdetalle": 8482,
      "ĠSubsecre": 8483,
      "Ġquinta": 8484,
      "Ġuniversidades": 8485,
      "ham": 8486,
      "Ġvolver": 8487,
      "Ġaspir": 8488,
      "Ġarticul": 8489,
      "ĠNORM": 8490,
      "Ġasistir": 8491,
      "Ġmutuo": 8492,
      "ĠilÃŃcito": 8493,
      "Ġbol": 8494,
      "orden": 8495,
      "ĠFondos": 8496,
      "ĠdiagnÃ³stico": 8497,
      "Ġliter": 8498,
      "sto": 8499,
      "Est": 8500,
      "Ġreaf": 8501,
      "cindi": 8502,
      "grupo": 8503,
      "liqu": 8504,
      "ĠsolicitÃ³": 8505,
      "ED": 8506,
      "Ġsupl": 8507,
      "Ġaver": 8508,
      "Ġsolicite": 8509,
      "ĠBer": 8510,
      "ĠCatalÃ¡n": 8511,
      "Ġadaptar": 8512,
      "Ġextraordinaria": 8513,
      "Ġdefinir": 8514,
      "Ġveinte": 8515,
      "ĠpercibirÃ¡": 8516,
      "ĠTERC": 8517,
      "Ġsustituir": 8518,
      "Ġfuese": 8519,
      "Ġpropietario": 8520,
      "Ġtelem": 8521,
      "Ġintercambios": 8522,
      "Ġesca": 8523,
      "ĠÃģrea": 8524,
      "pes": 8525,
      "Ġretro": 8526,
      "ĠKuwait": 8527,
      "ĠPakistÃ¡n": 8528,
      "Ġlunes": 8529,
      "ĠPRESUP": 8530,
      "Ġmultilaterales": 8531,
      "ĠurbanÃŃsticas": 8532,
      "CES": 8533,
      "Ġintegran": 8534,
      "ĠHerzegovina": 8535,
      "Ġvotos": 8536,
      "ilandia": 8537,
      "Ġluego": 8538,
      "ĠpermitirÃ¡": 8539,
      "Ġcreo": 8540,
      "ĠCortes": 8541,
      "CAN": 8542,
      "Ġdeseo": 8543,
      "ĠMÃ¡": 8544,
      "Ġiniciado": 8545,
      "Ġobtenida": 8546,
      "ĠBÃ©lgica": 8547,
      "Ġagricul": 8548,
      "ĠIntro": 8549,
      "tenta": 8550,
      "Ġsecu": 8551,
      "Ġ118": 8552,
      "Ġnegocio": 8553,
      "Ġregulados": 8554,
      "Ġconductor": 8555,
      "Ġcaza": 8556,
      "Ġbilaterales": 8557,
      "Ġsecundaria": 8558,
      "Ġpaga": 8559,
      "ĠCoordin": 8560,
      "ĠtensiÃ³n": 8561,
      "ĠIslÃ¡mica": 8562,
      "Ġplaza": 8563,
      "ĠEstructura": 8564,
      "Ġhttp": 8565,
      "Ġdupl": 8566,
      "ĠCOMUNIDAD": 8567,
      "jar": 8568,
      "Ġfuego": 8569,
      "ĠToda": 8570,
      "Ġapoya": 8571,
      "Ġdesprende": 8572,
      "TENCIA": 8573,
      "Ġreintegr": 8574,
      "ĠAntes": 8575,
      "ua": 8576,
      "illas": 8577,
      "Ġllamamiento": 8578,
      "ĠCompro": 8579,
      "ĠTimor": 8580,
      "Ġabaste": 8581,
      "olver": 8582,
      "Ġprocedencia": 8583,
      "ĠEscuela": 8584,
      "TEG": 8585,
      "Ġlesiones": 8586,
      "Ġsemillas": 8587,
      "Ġllegado": 8588,
      "Ġsospec": 8589,
      "Ġnecesita": 8590,
      "ĠvÃŃctima": 8591,
      "Ġcicl": 8592,
      "ĠBulgaria": 8593,
      "Ġvinculante": 8594,
      "ĠallÃ¡": 8595,
      "Ġfuturas": 8596,
      "Ġexpedido": 8597,
      "ĠincluirÃ¡n": 8598,
      "Ġcoordinar": 8599,
      "ĠsÃŃn": 8600,
      "torno": 8601,
      "Ġsituados": 8602,
      "Ġactivamente": 8603,
      "ĠTECN": 8604,
      "istema": 8605,
      "brado": 8606,
      "Ġeuropeas": 8607,
      "eamente": 8608,
      "cadas": 8609,
      "ĠadoptarÃ¡": 8610,
      "Ġmanifiesta": 8611,
      "ĠSecretaria": 8612,
      "Ġcanje": 8613,
      "Ġcongel": 8614,
      "Ġdegrad": 8615,
      "yectos": 8616,
      "Ġsexto": 8617,
      "ĠamortizaciÃ³n": 8618,
      "Ġbeneficiaria": 8619,
      "Ġoral": 8620,
      "ĠprovisiÃ³n": 8621,
      "Ġcontables": 8622,
      "ĠprecisiÃ³n": 8623,
      "Ġdeterioro": 8624,
      "arizaciÃ³n": 8625,
      "Ġdesarrollados": 8626,
      "ĠGer": 8627,
      "Ġmus": 8628,
      "ĠMin": 8629,
      "Ġgravamen": 8630,
      "ĠViena": 8631,
      "Ġsusci": 8632,
      "ĠpreÃ¡mbulo": 8633,
      "ĠDECI": 8634,
      "ĠMag": 8635,
      "ĠExtre": 8636,
      "Ġalquiler": 8637,
      "cede": 8638,
      "Ġinterven": 8639,
      "ĠFu": 8640,
      "todos": 8641,
      "CON": 8642,
      "Ġincendios": 8643,
      "Ã³tesis": 8644,
      "ob": 8645,
      "Â»:": 8646,
      "Ġlimitado": 8647,
      "ĠexaminÃ³": 8648,
      "Ġ1984": 8649,
      "Ġdecen": 8650,
      "ĠDeci": 8651,
      "Ġimpre": 8652,
      "Ġaco": 8653,
      "ĠFe": 8654,
      "Ġemis": 8655,
      "Ġdefinidas": 8656,
      "Ġmandatos": 8657,
      "Ġasumir": 8658,
      "Ġlegislador": 8659,
      "ruecos": 8660,
      "Ġsituado": 8661,
      "ĠpacÃŃfic": 8662,
      "ĠPuer": 8663,
      "paÃ±as": 8664,
      "ĠgrÃ¡fic": 8665,
      "ritu": 8666,
      "Ġ2018": 8667,
      "ĠeconomÃŃas": 8668,
      "enas": 8669,
      "ĠCheca": 8670,
      "fur": 8671,
      "Ġllevado": 8672,
      "NUR": 8673,
      "1986": 8674,
      "Ġexistan": 8675,
      "ĠPRIMERO": 8676,
      "Ġpatrocin": 8677,
      "ĠEfec": 8678,
      "ĠEspacio": 8679,
      "ĠPas": 8680,
      "ÃŃda": 8681,
      "Ġponente": 8682,
      "Ġsanitarias": 8683,
      "Ġacero": 8684,
      "pulaciÃ³n": 8685,
      "illo": 8686,
      "YO": 8687,
      "ĠCARACTER": 8688,
      "ĠFederal": 8689,
      "ĠColom": 8690,
      "ĠECONOMI": 8691,
      "rÃ¡ul": 8692,
      "Ġconl": 8693,
      "ĠDocumentos": 8694,
      "ĠmenciÃ³n": 8695,
      "Ġrecibida": 8696,
      "Ġvoluntario": 8697,
      "ĠdimensiÃ³n": 8698,
      "ki": 8699,
      "Ġescolares": 8700,
      "Ġvistas": 8701,
      "Ġpreste": 8702,
      "ĠMixta": 8703,
      "Ġpuerto": 8704,
      "ĠCP": 8705,
      "Ġhabiendo": 8706,
      "ĠnÃºcl": 8707,
      "ĠhabrÃ¡n": 8708,
      "ĠInterpre": 8709,
      "ĠcientÃŃficos": 8710,
      "Ġaeropuer": 8711,
      "ĠESTADOS": 8712,
      "Ġpresupuestarios": 8713,
      "ega": 8714,
      "Ġplanteada": 8715,
      "ĠOriental": 8716,
      "zarÃ¡": 8717,
      "ĠJurÃŃdica": 8718,
      "kg": 8719,
      "Ġ1980": 8720,
      "ĠEstrategia": 8721,
      "Ġlimitar": 8722,
      "Ġinjus": 8723,
      "Ġacogida": 8724,
      "ĠQuin": 8725,
      "ortes": 8726,
      "Ġviajes": 8727,
      "Ġdignidad": 8728,
      "cusiÃ³n": 8729,
      "ĠurbanÃŃstico": 8730,
      "Ġgobern": 8731,
      "Ġcorrecto": 8732,
      "Ġrepresentan": 8733,
      "Ġdimensiones": 8734,
      "ĠContratos": 8735,
      "Ġcorrectamente": 8736,
      "bral": 8737,
      "Ġexterna": 8738,
      "bida": 8739,
      "Ġcorreo": 8740,
      "ĠPERSONAL": 8741,
      "ĠconducciÃ³n": 8742,
      "ft": 8743,
      "ĠapÃ©ndice": 8744,
      "ĠContencioso": 8745,
      "Ġreferencias": 8746,
      "Ġfinalmente": 8747,
      "Ġdeberes": 8748,
      "ĠRegiÃ³n": 8749,
      "ĠFacultativo": 8750,
      "Ġentren": 8751,
      "ĠcontraprestaciÃ³n": 8752,
      "Ġaves": 8753,
      "Ġvisita": 8754,
      "Ġinh": 8755,
      "MENTOS": 8756,
      "ĠEnseÃ±anza": 8757,
      "ĠIX": 8758,
      "Ġdemas": 8759,
      "Ġmaternidad": 8760,
      "ĠtitulaciÃ³n": 8761,
      "Ġreconocidas": 8762,
      "render": 8763,
      "Ġdivis": 8764,
      "ija": 8765,
      "Ġsupere": 8766,
      "ĠNE": 8767,
      "ĠenergÃ©tica": 8768,
      "dices": 8769,
      "ÃŃodo": 8770,
      "Ġprestando": 8771,
      "Ġsupra": 8772,
      "ĠCONSIDER": 8773,
      "ĠDa": 8774,
      "Ġum": 8775,
      "Ġforestal": 8776,
      "turos": 8777,
      "Ġ250": 8778,
      "ĠBen": 8779,
      "guay": 8780,
      "Ġadver": 8781,
      "ĠAPAR": 8782,
      "ĠTransporte": 8783,
      "Ġretraso": 8784,
      "ĠReconoci": 8785,
      "Ġcredi": 8786,
      "Ġfibras": 8787,
      "Ġestructur": 8788,
      "ĠVasco": 8789,
      "Ġtributos": 8790,
      "ĠMAS": 8791,
      "Ġespecialidades": 8792,
      "ĠVicepresidente": 8793,
      "ĠestadÃŃstica": 8794,
      "ron": 8795,
      "Ġcorresponder": 8796,
      "Ġrespetando": 8797,
      "REN": 8798,
      "Ġposiciones": 8799,
      "aca": 8800,
      "Ġsolu": 8801,
      "ĠPÃģ": 8802,
      "Ġdesechos": 8803,
      "Ġenajen": 8804,
      "ĠCOMPE": 8805,
      "ĠADMINISTRACION": 8806,
      "ars": 8807,
      "Ġparticipan": 8808,
      "venta": 8809,
      "Ġintelectual": 8810,
      "Ġestatutos": 8811,
      "Ġarbitr": 8812,
      "Ġcauc": 8813,
      "ĠFuncionamiento": 8814,
      "Ġemitir": 8815,
      "ĠYugoslavia": 8816,
      "Ġ02": 8817,
      "udi": 8818,
      "ganda": 8819,
      "Ġdenuncias": 8820,
      "Ġmultipl": 8821,
      "CAL": 8822,
      "Ġadher": 8823,
      "Ġafectada": 8824,
      "gipto": 8825,
      "ĠLeona": 8826,
      "Ġalojamiento": 8827,
      "Ġcausados": 8828,
      "Ġdiscrimina": 8829,
      "Ġ(*)": 8830,
      "ĠGrecia": 8831,
      "Ġintegrados": 8832,
      "Ġnormalmente": 8833,
      "Ġcontinuidad": 8834,
      "Ġaceite": 8835,
      "ARIA": 8836,
      "ĠestablecerÃ¡n": 8837,
      "Ġrevel": 8838,
      "Ġbloque": 8839,
      "Ġbecas": 8840,
      "ĠONG": 8841,
      "Ġveci": 8842,
      "ĠSudÃ¡frica": 8843,
      "Ġdicta": 8844,
      "Ġcorrecciones": 8845,
      "ĠIndustrial": 8846,
      "Ġencaminadas": 8847,
      "Ġdiscapaci": 8848,
      "Ġhorizon": 8849,
      "ĠTecnologÃŃa": 8850,
      "Ġprotocolo": 8851,
      "Ġreembolso": 8852,
      "Ġexpir": 8853,
      "cionado": 8854,
      "Ġpendiente": 8855,
      "Ġdemostrado": 8856,
      "ĠCiencias": 8857,
      "Ġviernes": 8858,
      "ĠPlanes": 8859,
      "Ġdeficiencias": 8860,
      "Ġdefinen": 8861,
      "Ġine": 8862,
      "Ġprov": 8863,
      "SS": 8864,
      "Ġopon": 8865,
      "centr": 8866,
      "ĠAprobar": 8867,
      "Ġabuso": 8868,
      "Ġcasti": 8869,
      "Ġ115": 8870,
      "ieran": 8871,
      "ĠcuantÃŃas": 8872,
      "Ġdivul": 8873,
      "Ġacondi": 8874,
      "Ġ110": 8875,
      "ulsiÃ³n": 8876,
      "Ġexperiencias": 8877,
      "Ġconsistente": 8878,
      "ĠexÃ¡menes": 8879,
      "Ġaconse": 8880,
      "Ġderivado": 8881,
      "Ġcadena": 8882,
      "Ġreclamantes": 8883,
      "ĠBe": 8884,
      "Ġalternativas": 8885,
      "ĠObligatoria": 8886,
      "Ġ400": 8887,
      "trum": 8888,
      "iÃ©ndose": 8889,
      "Ġescritura": 8890,
      "Ġdeliberaciones": 8891,
      "deraciones": 8892,
      "Ġgrad": 8893,
      "Ġprolong": 8894,
      "ĠHe": 8895,
      "Ġrequieren": 8896,
      "ĠatribuciÃ³n": 8897,
      "Ġrecogidos": 8898,
      "Ġrepresentativos": 8899,
      "Ġentrar": 8900,
      "Ġsesenta": 8901,
      "UESTOS": 8902,
      "Ġdemand": 8903,
      "ITAR": 8904,
      "Ġverificar": 8905,
      "Ġlistas": 8906,
      "ilip": 8907,
      "Ġadjun": 8908,
      "ĠEquipo": 8909,
      "ĠSERA": 8910,
      "Ġexportador": 8911,
[...]
